{
  "version": "1.0",
  "truncation": null,
  "padding": null,
  "added_tokens": [
    {
      "id": 0,
      "content": "[UNK]",
      "single_word": false,
      "lstrip": false,
      "rstrip": false,
      "normalized": false,
      "special": true
    },
    {
      "id": 1,
      "content": "[CLS]",
      "single_word": false,
      "lstrip": false,
      "rstrip": false,
      "normalized": false,
      "special": true
    },
    {
      "id": 2,
      "content": "[SEP]",
      "single_word": false,
      "lstrip": false,
      "rstrip": false,
      "normalized": false,
      "special": true
    },
    {
      "id": 3,
      "content": "[PAD]",
      "single_word": false,
      "lstrip": false,
      "rstrip": false,
      "normalized": false,
      "special": true
    },
    {
      "id": 4,
      "content": "[MASK]",
      "single_word": false,
      "lstrip": false,
      "rstrip": false,
      "normalized": false,
      "special": true
    }
  ],
  "normalizer": null,
  "pre_tokenizer": {
    "type": "Sequence",
    "pretokenizers": [
      {
        "type": "Whitespace"
      },
      {
        "type": "Punctuation",
        "behavior": "Isolated"
      }
    ]
  },
  "post_processor": {
    "type": "TemplateProcessing",
    "single": [
      {
        "SpecialToken": {
          "id": "[CLS]",
          "type_id": 0
        }
      },
      {
        "Sequence": {
          "id": "A",
          "type_id": 0
        }
      },
      {
        "SpecialToken": {
          "id": "[SEP]",
          "type_id": 0
        }
      }
    ],
    "pair": [
      {
        "SpecialToken": {
          "id": "[CLS]",
          "type_id": 0
        }
      },
      {
        "Sequence": {
          "id": "A",
          "type_id": 0
        }
      },
      {
        "SpecialToken": {
          "id": "[SEP]",
          "type_id": 0
        }
      },
      {
        "Sequence": {
          "id": "B",
          "type_id": 1
        }
      },
      {
        "SpecialToken": {
          "id": "[SEP]",
          "type_id": 1
        }
      }
    ],
    "special_tokens": {
      "[CLS]": {
        "id": "[CLS]",
        "ids": [
          1
        ],
        "tokens": [
          "[CLS]"
        ]
      },
      "[MASK]": {
        "id": "[MASK]",
        "ids": [
          4
        ],
        "tokens": [
          "[MASK]"
        ]
      },
      "[PAD]": {
        "id": "[PAD]",
        "ids": [
          3
        ],
        "tokens": [
          "[PAD]"
        ]
      },
      "[SEP]": {
        "id": "[SEP]",
        "ids": [
          2
        ],
        "tokens": [
          "[SEP]"
        ]
      },
      "[UNK]": {
        "id": "[UNK]",
        "ids": [
          0
        ],
        "tokens": [
          "[UNK]"
        ]
      }
    }
  },
  "decoder": null,
  "model": {
    "type": "WordPiece",
    "unk_token": "[UNK]",
    "continuing_subword_prefix": "##",
    "max_input_chars_per_word": 100,
    "vocab": {
      "[UNK]": 0,
      "[CLS]": 1,
      "[SEP]": 2,
      "[PAD]": 3,
      "[MASK]": 4,
      "!": 5,
      "\"": 6,
      "#": 7,
      "$": 8,
      "%": 9,
      "&": 10,
      "'": 11,
      "(": 12,
      ")": 13,
      "*": 14,
      "+": 15,
      ",": 16,
      "-": 17,
      ".": 18,
      "/": 19,
      "0": 20,
      "1": 21,
      "2": 22,
      "3": 23,
      "4": 24,
      "5": 25,
      "6": 26,
      "7": 27,
      "8": 28,
      "9": 29,
      ":": 30,
      ";": 31,
      "<": 32,
      "=": 33,
      ">": 34,
      "?": 35,
      "@": 36,
      "A": 37,
      "B": 38,
      "C": 39,
      "D": 40,
      "E": 41,
      "F": 42,
      "G": 43,
      "H": 44,
      "I": 45,
      "J": 46,
      "K": 47,
      "L": 48,
      "M": 49,
      "N": 50,
      "O": 51,
      "P": 52,
      "Q": 53,
      "R": 54,
      "S": 55,
      "T": 56,
      "U": 57,
      "V": 58,
      "W": 59,
      "X": 60,
      "Y": 61,
      "Z": 62,
      "[": 63,
      "\\": 64,
      "]": 65,
      "^": 66,
      "_": 67,
      "`": 68,
      "a": 69,
      "b": 70,
      "c": 71,
      "d": 72,
      "e": 73,
      "f": 74,
      "g": 75,
      "h": 76,
      "i": 77,
      "j": 78,
      "k": 79,
      "l": 80,
      "m": 81,
      "n": 82,
      "o": 83,
      "p": 84,
      "q": 85,
      "r": 86,
      "s": 87,
      "t": 88,
      "u": 89,
      "v": 90,
      "w": 91,
      "x": 92,
      "y": 93,
      "z": 94,
      "{": 95,
      "~": 96,
      "¡": 97,
      "£": 98,
      "¦": 99,
      "¨": 100,
      "ª": 101,
      "«": 102,
      "­": 103,
      "®": 104,
      "¯": 105,
      "°": 106,
      "º": 107,
      "É": 108,
      "Ý": 109,
      "à": 110,
      "â": 111,
      "ç": 112,
      "é": 113,
      "í": 114,
      "î": 115,
      "ñ": 116,
      "ó": 117,
      "ô": 118,
      "ö": 119,
      "œ": 120,
      "ȡ": 121,
      "ȥ": 122,
      "ȩ": 123,
      "ˠ": 124,
      "̡": 125,
      "̭": 126,
      "̲": 127,
      "͠": 128,
      "Ϳ": 129,
      "Ρ": 130,
      "Σ": 131,
      "Τ": 132,
      "Υ": 133,
      "Χ": 134,
      "Ω": 135,
      "ά": 136,
      "έ": 137,
      "ή": 138,
      "ί": 139,
      "ΰ": 140,
      "α": 141,
      "β": 142,
      "γ": 143,
      "δ": 144,
      "ζ": 145,
      "κ": 146,
      "Х": 147,
      "׺": 148,
      "ݳ": 149,
      "–": 150,
      "—": 151,
      "’": 152,
      "“": 153,
      "”": 154,
      "‡": 155,
      "…": 156,
      "‰": 157,
      "′": 158,
      "″": 159,
      "€": 160,
      "�": 161,
      "##o": 162,
      "##s": 163,
      "##t": 164,
      "##9": 165,
      "##0": 166,
      "##l": 167,
      "##e": 168,
      "##i": 169,
      "##n": 170,
      "##g": 171,
      "##b": 172,
      "##y": 173,
      "##a": 174,
      "##d": 175,
      "##r": 176,
      "##f": 177,
      "##c": 178,
      "##p": 179,
      "##2": 180,
      "##4": 181,
      "##k": 182,
      "##8": 183,
      "##6": 184,
      "##u": 185,
      "##m": 186,
      "##q": 187,
      "##w": 188,
      "##h": 189,
      "##x": 190,
      "##v": 191,
      "##j": 192,
      "##z": 193,
      "##7": 194,
      "##L": 195,
      "##1": 196,
      "##M": 197,
      "##C": 198,
      "##A": 199,
      "##N": 200,
      "##I": 201,
      "##D": 202,
      "##3": 203,
      "##5": 204,
      "##S": 205,
      "##E": 206,
      "##H": 207,
      "##R": 208,
      "##T": 209,
      "##O": 210,
      "##B": 211,
      "##U": 212,
      "##G": 213,
      "##P": 214,
      "##V": 215,
      "##Y": 216,
      "##F": 217,
      "##é": 218,
      "##J": 219,
      "##K": 220,
      "##W": 221,
      "##X": 222,
      "##ó": 223,
      "##Z": 224,
      "##Q": 225,
      "##í": 226,
      "##ζ": 227,
      "##â": 228,
      "##ô": 229,
      "##ñ": 230,
      "##î": 231,
      "##à": 232,
      "##ά": 233,
      "##ç": 234,
      "##γ": 235,
      "##Υ": 236,
      "##έ": 237,
      "##œ": 238,
      "##ö": 239,
      "##he": 240,
      "the": 241,
      "##er": 242,
      "##in": 243,
      "##at": 244,
      "##on": 245,
      "##es": 246,
      "##nd": 247,
      "##or": 248,
      "##ou": 249,
      "##ed": 250,
      "##en": 251,
      "##an": 252,
      "##ing": 253,
      "to": 254,
      "##re": 255,
      "##al": 256,
      "of": 257,
      "##it": 258,
      "##ar": 259,
      "th": 260,
      "in": 261,
      "and": 262,
      "##as": 263,
      "##is": 264,
      "##ic": 265,
      "##om": 266,
      "##ion": 267,
      "##le": 268,
      "##ent": 269,
      "##ll": 270,
      "The": 271,
      "be": 272,
      "##ot": 273,
      "##ve": 274,
      "re": 275,
      "##ly": 276,
      "is": 277,
      "##st": 278,
      "##ow": 279,
      "that": 280,
      "it": 281,
      "##ut": 282,
      "##id": 283,
      "##ct": 284,
      "on": 285,
      "##et": 286,
      "you": 287,
      "ha": 288,
      "##se": 289,
      "##ur": 290,
      "##ro": 291,
      "##ld": 292,
      "for": 293,
      "##ay": 294,
      "st": 295,
      "##ver": 296,
      "##ce": 297,
      "##ig": 298,
      "was": 299,
      "##ir": 300,
      "##im": 301,
      "##ch": 302,
      "##ation": 303,
      "##am": 304,
      "are": 305,
      "an": 306,
      "##ad": 307,
      "wh": 308,
      "##ter": 309,
      "we": 310,
      "##ith": 311,
      "##il": 312,
      "##ol": 313,
      "as": 314,
      "with": 315,
      "he": 316,
      "not": 317,
      "##ess": 318,
      "##ke": 319,
      "##est": 320,
      "##ment": 321,
      "##ill": 322,
      "pro": 323,
      "have": 324,
      "##ul": 325,
      "##op": 326,
      "##her": 327,
      "de": 328,
      "se": 329,
      "##ers": 330,
      "##od": 331,
      "do": 332,
      "at": 333,
      "##ould": 334,
      "con": 335,
      "##ra": 336,
      "they": 337,
      "##ate": 338,
      "ne": 339,
      "##ge": 340,
      "##ant": 341,
      "##ht": 342,
      "go": 343,
      "##th": 344,
      "fr": 345,
      "or": 346,
      "li": 347,
      "kn": 348,
      "com": 349,
      "##us": 350,
      "##ain": 351,
      "##ac": 352,
      "ex": 353,
      "##ri": 354,
      "su": 355,
      "##pp": 356,
      "##and": 357,
      "know": 358,
      "##ere": 359,
      "##ist": 360,
      "##ust": 361,
      "sh": 362,
      "##ort": 363,
      "##ity": 364,
      "ye": 365,
      "by": 366,
      "##ore": 367,
      "##ab": 368,
      "##ies": 369,
      "##mp": 370,
      "uh": 371,
      "from": 372,
      "ab": 373,
      "##ome": 374,
      "##ight": 375,
      "but": 376,
      "##out": 377,
      "##ff": 378,
      "##ost": 379,
      "##ie": 380,
      "##ally": 381,
      "##ive": 382,
      "##ard": 383,
      "so": 384,
      "ch": 385,
      "al": 386,
      "##pe": 387,
      "##all": 388,
      "wor": 389,
      "##os": 390,
      "##nt": 391,
      "me": 392,
      "can": 393,
      "##ud": 394,
      "all": 395,
      "##art": 396,
      "##um": 397,
      "le": 398,
      "##el": 399,
      "##oug": 400,
      "whe": 401,
      "##our": 402,
      "has": 403,
      "##un": 404,
      "had": 405,
      "##au": 406,
      "##qu": 407,
      "##iv": 408,
      "##oc": 409,
      "his": 410,
      "pl": 411,
      "##ast": 412,
      "were": 413,
      "##one": 414,
      "like": 415,
      "##em": 416,
      "out": 417,
      "ma": 418,
      "man": 419,
      "It": 420,
      "this": 421,
      "one": 422,
      "##ong": 423,
      "about": 424,
      "pr": 425,
      "##ok": 426,
      "##ap": 427,
      "there": 428,
      "ar": 429,
      "##ous": 430,
      "##if": 431,
      "no": 432,
      "##ice": 433,
      "sa": 434,
      "will": 435,
      "##ink": 436,
      "would": 437,
      "##ther": 438,
      "their": 439,
      "##ound": 440,
      "up": 441,
      "##ect": 442,
      "##ind": 443,
      "bec": 444,
      "any": 445,
      "##ah": 446,
      "##ions": 447,
      "pe": 448,
      "##ated": 449,
      "en": 450,
      "more": 451,
      "just": 452,
      "##ime": 453,
      "them": 454,
      "tr": 455,
      "don": 456,
      "##ure": 457,
      "##iz": 458,
      "##ople": 459,
      "##ial": 460,
      "ag": 461,
      "comp": 462,
      "##ance": 463,
      "##ough": 464,
      "what": 465,
      "##ack": 466,
      "Th": 467,
      "##ine": 468,
      "res": 469,
      "##orm": 470,
      "##ause": 471,
      "##ak": 472,
      "te": 473,
      "In": 474,
      "us": 475,
      "work": 476,
      "ad": 477,
      "year": 478,
      "get": 479,
      "my": 480,
      "He": 481,
      "##ans": 482,
      "##ide": 483,
      "##cc": 484,
      "some": 485,
      "##ven": 486,
      "think": 487,
      "who": 488,
      "yeah": 489,
      "##age": 490,
      "cl": 491,
      "if": 492,
      "people": 493,
      "There": 494,
      "been": 495,
      "did": 496,
      "##ag": 497,
      "##ew": 498,
      "##ook": 499,
      "##ings": 500,
      "per": 501,
      "##ount": 502,
      "##ble": 503,
      "imp": 504,
      "well": 505,
      "other": 506,
      "inc": 507,
      "##ame": 508,
      "because": 509,
      "##ence": 510,
      "##ays": 511,
      "##ep": 512,
      "##ue": 513,
      "int": 514,
      "time": 515,
      "##ite": 516,
      "##ich": 517,
      "un": 518,
      "##able": 519,
      "##ations": 520,
      "##ish": 521,
      "than": 522,
      "when": 523,
      "##ose": 524,
      "##are": 525,
      "##form": 526,
      "##erv": 527,
      "##ip": 528,
      "cont": 529,
      "off": 530,
      "##ry": 531,
      "##ace": 532,
      "qu": 533,
      "##very": 534,
      "over": 535,
      "##ire": 536,
      "##ub": 537,
      "St": 538,
      "##act": 539,
      "gr": 540,
      "her": 541,
      "##ery": 542,
      "##itt": 543,
      "##hing": 544,
      "dis": 545,
      "##gr": 546,
      "its": 547,
      "##ree": 548,
      "##ber": 549,
      "##ult": 550,
      "inter": 551,
      "##ors": 552,
      "##ary": 553,
      "##00": 554,
      "##own": 555,
      "##ign": 556,
      "##enc": 557,
      "19": 558,
      "rep": 559,
      "sp": 560,
      "##wn": 561,
      "##oy": 562,
      "could": 563,
      "##og": 564,
      "him": 565,
      "tw": 566,
      "##ade": 567,
      "##lic": 568,
      "she": 569,
      "They": 570,
      "good": 571,
      "We": 572,
      "only": 573,
      "##mer": 574,
      "mu": 575,
      "which": 576,
      "exp": 577,
      "##ass": 578,
      "app": 579,
      "##uct": 580,
      "##reat": 581,
      "##hed": 582,
      "bu": 583,
      "said": 584,
      "##ments": 585,
      "##ical": 586,
      "##pt": 587,
      "ta": 588,
      "sc": 589,
      "co": 590,
      "##ase": 591,
      "##ild": 592,
      "part": 593,
      "##ach": 594,
      "##ia": 595,
      "pre": 596,
      "##av": 597,
      "see": 598,
      "##int": 599,
      "your": 600,
      "di": 601,
      "ve": 602,
      "want": 603,
      "very": 604,
      "spe": 605,
      "right": 606,
      "##ens": 607,
      "most": 608,
      "new": 609,
      "##ark": 610,
      "fe": 611,
      "##nder": 612,
      "need": 613,
      "##vel": 614,
      "rec": 615,
      "##ates": 616,
      "##ang": 617,
      "how": 618,
      "really": 619,
      "into": 620,
      "You": 621,
      "##so": 622,
      "Ch": 623,
      "every": 624,
      "##ory": 625,
      "cr": 626,
      "cent": 627,
      "now": 628,
      "should": 629,
      "##ress": 630,
      "##ond": 631,
      "po": 632,
      "##ition": 633,
      "##ile": 634,
      "gu": 635,
      "##aw": 636,
      "##anc": 637,
      "##ved": 638,
      "##ents": 639,
      "act": 640,
      "des": 641,
      "lot": 642,
      "acc": 643,
      "##ty": 644,
      "am": 645,
      "##ord": 646,
      "um": 647,
      "much": 648,
      "bet": 649,
      "##ood": 650,
      "##omet": 651,
      "##fter": 652,
      "never": 653,
      "two": 654,
      "##ian": 655,
      "##ving": 656,
      "does": 657,
      "##lect": 658,
      "##iss": 659,
      "years": 660,
      "here": 661,
      "##uc": 662,
      "many": 663,
      "sm": 664,
      "##li": 665,
      "##ices": 666,
      "look": 667,
      "fir": 668,
      "##ick": 669,
      "##ater": 670,
      "under": 671,
      "##ons": 672,
      "att": 673,
      "also": 674,
      "##ict": 675,
      "ro": 676,
      "##ious": 677,
      "##ail": 678,
      "ass": 679,
      "back": 680,
      "##ities": 681,
      "##eral": 682,
      "going": 683,
      "dec": 684,
      "thr": 685,
      "where": 686,
      "##les": 687,
      "##gram": 688,
      "then": 689,
      "may": 690,
      "cons": 691,
      "##amp": 692,
      "way": 693,
      "somet": 694,
      "##igh": 695,
      "##alk": 696,
      "Wh": 697,
      "even": 698,
      "br": 699,
      "##sel": 700,
      "##vern": 701,
      "inv": 702,
      "our": 703,
      "got": 704,
      "##ft": 705,
      "bl": 706,
      "This": 707,
      "##und": 708,
      "make": 709,
      "##its": 710,
      "diff": 711,
      "serv": 712,
      "##ob": 713,
      "##ual": 714,
      "##ought": 715,
      "##ning": 716,
      "##ert": 717,
      "too": 718,
      "long": 719,
      "##ec": 720,
      "ind": 721,
      "##fe": 722,
      "col": 723,
      "tra": 724,
      "sy": 725,
      "##iew": 726,
      "fin": 727,
      "##formation": 728,
      "##land": 729,
      "eff": 730,
      "car": 731,
      "after": 732,
      "##thing": 733,
      "str": 734,
      "down": 735,
      "##ock": 736,
      "program": 737,
      "##fore": 738,
      "##gal": 739,
      "##ury": 740,
      "##ouse": 741,
      "comm": 742,
      "old": 743,
      "prov": 744,
      "rem": 745,
      "##other": 746,
      "##omm": 747,
      "op": 748,
      "cost": 749,
      "##ib": 750,
      "##lud": 751,
      "##gan": 752,
      "made": 753,
      "##ublic": 754,
      "requ": 755,
      "fl": 756,
      "##ful": 757,
      "##we": 758,
      "##lp": 759,
      "through": 760,
      "##way": 761,
      "rel": 762,
      "these": 763,
      "##ract": 764,
      "##ational": 765,
      "##ne": 766,
      "mo": 767,
      "##ily": 768,
      "##erm": 769,
      "first": 770,
      "reg": 771,
      "help": 772,
      "used": 773,
      "didn": 774,
      "##te": 775,
      "take": 776,
      "##urn": 777,
      "##ull": 778,
      "Fr": 779,
      "still": 780,
      "##ittle": 781,
      "mon": 782,
      "##ys": 783,
      "##ise": 784,
      "##ular": 785,
      "information": 786,
      "##ility": 787,
      "##oth": 788,
      "##ather": 789,
      "##ject": 790,
      "##stem": 791,
      "great": 792,
      "##ange": 793,
      "##pect": 794,
      "##ave": 795,
      "things": 796,
      "##ting": 797,
      "##ative": 798,
      "##ific": 799,
      "say": 800,
      "something": 801,
      "##als": 802,
      "those": 803,
      "##ating": 804,
      "little": 805,
      "##get": 806,
      "govern": 807,
      "##ks": 808,
      "##ug": 809,
      "pol": 810,
      "An": 811,
      "bel": 812,
      "supp": 813,
      "ac": 814,
      "count": 815,
      "includ": 816,
      "before": 817,
      "##ually": 818,
      "##ss": 819,
      "use": 820,
      "ev": 821,
      "add": 822,
      "mean": 823,
      "ll": 824,
      "find": 825,
      "own": 826,
      "##uring": 827,
      "stud": 828,
      "system": 829,
      "##ited": 830,
      "##ible": 831,
      "id": 832,
      "wr": 833,
      "She": 834,
      "pres": 835,
      "##imes": 836,
      "##ards": 837,
      "##ars": 838,
      "##ures": 839,
      "call": 840,
      "##ways": 841,
      "disc": 842,
      "##hes": 843,
      "differ": 844,
      "sub": 845,
      "state": 846,
      "##cess": 847,
      "being": 848,
      "fam": 849,
      "report": 850,
      "sec": 851,
      "law": 852,
      "##ef": 853,
      "hand": 854,
      "But": 855,
      "again": 856,
      "##oss": 857,
      "around": 858,
      "ob": 859,
      "pay": 860,
      "oh": 861,
      "##ci": 862,
      "show": 863,
      "day": 864,
      "kind": 865,
      "sur": 866,
      "##res": 867,
      "##ath": 868,
      "##olog": 869,
      "fo": 870,
      "pers": 871,
      "small": 872,
      "vis": 873,
      "high": 874,
      "interest": 875,
      "##ix": 876,
      "##ower": 877,
      "such": 878,
      "##ics": 879,
      "##oney": 880,
      "##old": 881,
      "##oh": 882,
      "199": 883,
      "##tern": 884,
      "##ues": 885,
      "New": 886,
      "place": 887,
      "real": 888,
      "cour": 889,
      "##air": 890,
      "##ied": 891,
      "always": 892,
      "##aint": 893,
      "bas": 894,
      "end": 895,
      "##ms": 896,
      "##self": 897,
      "##ederal": 898,
      "##oup": 899,
      "##meric": 900,
      "##ves": 901,
      "government": 902,
      "##ants": 903,
      "##ered": 904,
      "city": 905,
      "##end": 906,
      "lo": 907,
      "emp": 908,
      "##ule": 909,
      "prod": 910,
      "Americ": 911,
      "##ng": 912,
      "##con": 913,
      "##ear": 914,
      "home": 915,
      "##ency": 916,
      "bus": 917,
      "ke": 918,
      "##ets": 919,
      "##ganiz": 920,
      "loc": 921,
      "##ives": 922,
      "found": 923,
      "same": 924,
      "last": 925,
      "cap": 926,
      "mod": 927,
      "##led": 928,
      "proble": 929,
      "lar": 930,
      "gen": 931,
      "Al": 932,
      "money": 933,
      "##cent": 934,
      "##red": 935,
      "century": 936,
      "##rib": 937,
      "public": 938,
      "##ork": 939,
      "import": 940,
      "Cl": 941,
      "##vers": 942,
      "pop": 943,
      "##ool": 944,
      "stand": 945,
      "##ident": 946,
      "##mb": 947,
      "art": 948,
      "ent": 949,
      "If": 950,
      "start": 951,
      "rest": 952,
      "##any": 953,
      "##ists": 954,
      "ret": 955,
      "happ": 956,
      "bo": 957,
      "thing": 958,
      "dr": 959,
      "care": 960,
      "set": 961,
      "##ines": 962,
      "Un": 963,
      "##az": 964,
      "##ince": 965,
      "three": 966,
      "##ying": 967,
      "town": 968,
      "tak": 969,
      "##atch": 970,
      "mak": 971,
      "house": 972,
      "seem": 973,
      "plan": 974,
      "talk": 975,
      "organiz": 976,
      "##ody": 977,
      "hu": 978,
      "Br": 979,
      "thought": 980,
      "est": 981,
      "That": 982,
      "##osed": 983,
      "person": 984,
      "ear": 985,
      "inst": 986,
      "sch": 987,
      "##ces": 988,
      "##ably": 989,
      "num": 990,
      "appro": 991,
      "best": 992,
      "ins": 993,
      "##ently": 994,
      "big": 995,
      "##ern": 996,
      "child": 997,
      "el": 998,
      "sl": 999,
      "Le": 1000,
      "anything": 1001,
      "##iness": 1002,
      "belie": 1003,
      "##hen": 1004,
      "As": 1005,
      "Re": 1006,
      "world": 1007,
      "##ever": 1008,
      "red": 1009,
      "effect": 1010,
      "prop": 1011,
      "put": 1012,
      "fact": 1013,
      "read": 1014,
      "few": 1015,
      "play": 1016,
      "##fer": 1017,
      "##ren": 1018,
      "might": 1019,
      "life": 1020,
      "war": 1021,
      "##chn": 1022,
      "##ween": 1023,
      "##orn": 1024,
      "better": 1025,
      "legal": 1026,
      "build": 1027,
      "##llow": 1028,
      "##ked": 1029,
      "##conom": 1030,
      "ph": 1031,
      "val": 1032,
      "come": 1033,
      "Te": 1034,
      "No": 1035,
      "pri": 1036,
      "hard": 1037,
      "met": 1038,
      "For": 1039,
      "##ake": 1040,
      "che": 1041,
      "less": 1042,
      "far": 1043,
      "##xt": 1044,
      "##pl": 1045,
      "between": 1046,
      "point": 1047,
      "##ution": 1048,
      "##ont": 1049,
      "rule": 1050,
      "##velop": 1051,
      "##day": 1052,
      "school": 1053,
      "min": 1054,
      "while": 1055,
      "both": 1056,
      "And": 1057,
      "##ains": 1058,
      "comple": 1059,
      "different": 1060,
      "contro": 1061,
      "##vent": 1062,
      "wee": 1063,
      "must": 1064,
      "lead": 1065,
      "perform": 1066,
      "eas": 1067,
      "##ph": 1068,
      "incre": 1069,
      "case": 1070,
      "important": 1071,
      "rev": 1072,
      "##ters": 1073,
      "##ins": 1074,
      "spec": 1075,
      "mark": 1076,
      "sure": 1077,
      "ben": 1078,
      "av": 1079,
      "tri": 1080,
      "percent": 1081,
      "##ided": 1082,
      "country": 1083,
      "let": 1084,
      "hum": 1085,
      "chang": 1086,
      "##loy": 1087,
      "iss": 1088,
      "##ized": 1089,
      "fund": 1090,
      "##ts": 1091,
      "##cept": 1092,
      "resp": 1093,
      "away": 1094,
      "def": 1095,
      "##ined": 1096,
      "cur": 1097,
      "det": 1098,
      "##ished": 1099,
      "sign": 1100,
      "econom": 1101,
      "sim": 1102,
      "feel": 1103,
      "##ilt": 1104,
      "went": 1105,
      "##agement": 1106,
      "##hip": 1107,
      "each": 1108,
      "char": 1109,
      "wom": 1110,
      "book": 1111,
      "##irect": 1112,
      "##ids": 1113,
      "##ute": 1114,
      "result": 1115,
      "##be": 1116,
      "tax": 1117,
      "##ope": 1118,
      "consid": 1119,
      "area": 1120,
      "##der": 1121,
      "during": 1122,
      "design": 1123,
      "##ism": 1124,
      "conc": 1125,
      "doesn": 1126,
      "develop": 1127,
      "##uss": 1128,
      "##ata": 1129,
      "##ient": 1130,
      "Ad": 1131,
      "aut": 1132,
      "##ten": 1133,
      "sk": 1134,
      "dem": 1135,
      "##ired": 1136,
      "run": 1137,
      "##ital": 1138,
      "business": 1139,
      "##ason": 1140,
      "guess": 1141,
      "Sh": 1142,
      "ide": 1143,
      "benef": 1144,
      "##alth": 1145,
      "##urch": 1146,
      "par": 1147,
      "view": 1148,
      "##ee": 1149,
      "techn": 1150,
      "keep": 1151,
      "im": 1152,
      "sit": 1153,
      "##rew": 1154,
      "Is": 1155,
      "partic": 1156,
      "##ically": 1157,
      "product": 1158,
      "aff": 1159,
      "aud": 1160,
      "quest": 1161,
      "200": 1162,
      "dist": 1163,
      "##ling": 1164,
      "another": 1165,
      "process": 1166,
      "tour": 1167,
      "GA": 1168,
      "open": 1169,
      "##ward": 1170,
      "##ank": 1171,
      "head": 1172,
      "Mr": 1173,
      "##gest": 1174,
      "turn": 1175,
      "services": 1176,
      "##orts": 1177,
      "##ale": 1178,
      "##orp": 1179,
      "though": 1180,
      "cle": 1181,
      "##ck": 1182,
      "##ross": 1183,
      "federal": 1184,
      "##pend": 1185,
      "visit": 1186,
      "##outh": 1187,
      "hist": 1188,
      "mil": 1189,
      "Jon": 1190,
      "##ize": 1191,
      "##up": 1192,
      "##ission": 1193,
      "fun": 1194,
      "##ense": 1195,
      "prob": 1196,
      "On": 1197,
      "gl": 1198,
      "ty": 1199,
      "since": 1200,
      "##seum": 1201,
      "##ural": 1202,
      "##man": 1203,
      "allow": 1204,
      "##que": 1205,
      "control": 1206,
      "number": 1207,
      "stre": 1208,
      "##less": 1209,
      "At": 1210,
      "near": 1211,
      "done": 1212,
      "left": 1213,
      "large": 1214,
      "##ately": 1215,
      "##str": 1216,
      "What": 1217,
      "month": 1218,
      "dep": 1219,
      "##orth": 1220,
      "##ats": 1221,
      "ever": 1222,
      "Ind": 1223,
      "##ides": 1224,
      "employ": 1225,
      "##read": 1226,
      "trans": 1227,
      "##encies": 1228,
      "##illion": 1229,
      "cert": 1230,
      "ed": 1231,
      "island": 1232,
      "How": 1233,
      "four": 1234,
      "doing": 1235,
      "Ar": 1236,
      "room": 1237,
      "##ted": 1238,
      "##ced": 1239,
      "bad": 1240,
      "enough": 1241,
      "##jor": 1242,
      "hour": 1243,
      "##ians": 1244,
      "data": 1245,
      "##ared": 1246,
      "conf": 1247,
      "LS": 1248,
      "000": 1249,
      "Pro": 1250,
      "test": 1251,
      "tell": 1252,
      "probably": 1253,
      "mar": 1254,
      "GAO": 1255,
      "##ality": 1256,
      "##here": 1257,
      "##io": 1258,
      "mat": 1259,
      "water": 1260,
      "##ric": 1261,
      "##ology": 1262,
      "invest": 1263,
      "poss": 1264,
      "##ner": 1265,
      "##ash": 1266,
      "Clint": 1267,
      "ext": 1268,
      "sw": 1269,
      "night": 1270,
      "unt": 1271,
      "##stand": 1272,
      "expl": 1273,
      "follow": 1274,
      "ref": 1275,
      "##ley": 1276,
      "job": 1277,
      "##ote": 1278,
      "once": 1279,
      "nothing": 1280,
      "prof": 1281,
      "adv": 1282,
      "require": 1283,
      "cover": 1284,
      "##iet": 1285,
      "Clinton": 1286,
      "med": 1287,
      "children": 1288,
      "##ees": 1289,
      "programs": 1290,
      "direct": 1291,
      "built": 1292,
      "without": 1293,
      "five": 1294,
      "mail": 1295,
      "hot": 1296,
      "sever": 1297,
      "took": 1298,
      "pret": 1299,
      "##ier": 1300,
      "frie": 1301,
      "tre": 1302,
      "came": 1303,
      "give": 1304,
      "Some": 1305,
      "Sp": 1306,
      "18": 1307,
      "20": 1308,
      "##ained": 1309,
      "##side": 1310,
      "##aug": 1311,
      "seen": 1312,
      "My": 1313,
      "able": 1314,
      "##urity": 1315,
      "##joy": 1316,
      "group": 1317,
      "##ral": 1318,
      "financ": 1319,
      "##ged": 1320,
      "called": 1321,
      "ser": 1322,
      "##ness": 1323,
      "watch": 1324,
      "da": 1325,
      "anal": 1326,
      "men": 1327,
      "along": 1328,
      "land": 1329,
      "commun": 1330,
      "friend": 1331,
      "walk": 1332,
      "##oun": 1333,
      "##ases": 1334,
      "camp": 1335,
      "##upp": 1336,
      "next": 1337,
      "major": 1338,
      "enjoy": 1339,
      "elect": 1340,
      "collect": 1341,
      "against": 1342,
      "pretty": 1343,
      "impro": 1344,
      "kids": 1345,
      "change": 1346,
      "Be": 1347,
      "grow": 1348,
      "gra": 1349,
      "LSC": 1350,
      "##ior": 1351,
      "##body": 1352,
      "why": 1353,
      "support": 1354,
      "temp": 1355,
      "name": 1356,
      "polit": 1357,
      "rece": 1358,
      "fac": 1359,
      "until": 1360,
      "young": 1361,
      "##ional": 1362,
      "power": 1363,
      "##ump": 1364,
      "top": 1365,
      "##uff": 1366,
      "##ned": 1367,
      "##ages": 1368,
      "ris": 1369,
      "form": 1370,
      "adm": 1371,
      "##per": 1372,
      "dri": 1373,
      "##ision": 1374,
      "air": 1375,
      "##ames": 1376,
      "stat": 1377,
      "prot": 1378,
      "known": 1379,
      "priv": 1380,
      "wanted": 1381,
      "happen": 1382,
      "Serv": 1383,
      "pat": 1384,
      "##uck": 1385,
      "##ased": 1386,
      "##aper": 1387,
      "Comm": 1388,
      "huh": 1389,
      "certain": 1390,
      "full": 1391,
      "term": 1392,
      "##els": 1393,
      "##gy": 1394,
      "cre": 1395,
      "account": 1396,
      "management": 1397,
      "service": 1398,
      "pass": 1399,
      "American": 1400,
      "##ither": 1401,
      "equ": 1402,
      "cond": 1403,
      "##ger": 1404,
      "opp": 1405,
      "##ccess": 1406,
      "shop": 1407,
      "##ining": 1408,
      "Joh": 1409,
      "##ron": 1410,
      "contin": 1411,
      "##lement": 1412,
      "family": 1413,
      "pract": 1414,
      "All": 1415,
      "expect": 1416,
      "inf": 1417,
      "times": 1418,
      "course": 1419,
      "level": 1420,
      "sum": 1421,
      "Ca": 1422,
      "deli": 1423,
      "##iven": 1424,
      "##aring": 1425,
      "John": 1426,
      "believe": 1427,
      "gener": 1428,
      "problem": 1429,
      "##ified": 1430,
      "costs": 1431,
      "understand": 1432,
      "invol": 1433,
      "everything": 1434,
      "mov": 1435,
      "else": 1436,
      "var": 1437,
      "beh": 1438,
      "several": 1439,
      "Rep": 1440,
      "##most": 1441,
      "class": 1442,
      "often": 1443,
      "stay": 1444,
      "ter": 1445,
      "national": 1446,
      "##ised": 1447,
      "##uction": 1448,
      "past": 1449,
      "agencies": 1450,
      "main": 1451,
      "curr": 1452,
      "market": 1453,
      "##alf": 1454,
      "##ember": 1455,
      "##arr": 1456,
      "Act": 1457,
      "polic": 1458,
      "##iting": 1459,
      "To": 1460,
      "review": 1461,
      "popular": 1462,
      "##used": 1463,
      "##aut": 1464,
      "##ience": 1465,
      "stop": 1466,
      "##ature": 1467,
      "##ton": 1468,
      "avail": 1469,
      "##ru": 1470,
      "##reen": 1471,
      "meet": 1472,
      "##lish": 1473,
      "##udget": 1474,
      "dra": 1475,
      "free": 1476,
      "sect": 1477,
      "##ients": 1478,
      "crit": 1479,
      "won": 1480,
      "live": 1481,
      "##idd": 1482,
      "##pped": 1483,
      "spend": 1484,
      "local": 1485,
      "##inal": 1486,
      "days": 1487,
      "##aster": 1488,
      "second": 1489,
      "provide": 1490,
      "news": 1491,
      "Do": 1492,
      "These": 1493,
      "##ured": 1494,
      "##ell": 1495,
      "Po": 1496,
      "##ering": 1497,
      "side": 1498,
      "least": 1499,
      "##ivid": 1500,
      "trad": 1501,
      "oper": 1502,
      "##resent": 1503,
      "##hor": 1504,
      "story": 1505,
      "problems": 1506,
      "##inc": 1507,
      "##ird": 1508,
      "##ances": 1509,
      "##ention": 1510,
      "getting": 1511,
      "Cong": 1512,
      "examp": 1513,
      "agency": 1514,
      "doll": 1515,
      "Mar": 1516,
      "When": 1517,
      "One": 1518,
      "##ibility": 1519,
      "10": 1520,
      "says": 1521,
      "##ulation": 1522,
      "ago": 1523,
      "exper": 1524,
      "Ex": 1525,
      "financial": 1526,
      "Congress": 1527,
      "His": 1528,
      "es": 1529,
      "##ret": 1530,
      "week": 1531,
      "post": 1532,
      "##ush": 1533,
      "Pe": 1534,
      "##ability": 1535,
      "##ife": 1536,
      "million": 1537,
      "isn": 1538,
      "asked": 1539,
      "15": 1540,
      "##ched": 1541,
      "reason": 1542,
      "##ysis": 1543,
      "wasn": 1544,
      "success": 1545,
      "ey": 1546,
      "whole": 1547,
      "site": 1548,
      "looked": 1549,
      "performance": 1550,
      "cut": 1551,
      "quite": 1552,
      "having": 1553,
      "list": 1554,
      "##aff": 1555,
      "##aid": 1556,
      "##ina": 1557,
      "offic": 1558,
      "##ried": 1559,
      "activ": 1560,
      "##omp": 1561,
      "almost": 1562,
      "rul": 1563,
      "study": 1564,
      "project": 1565,
      "available": 1566,
      "##pr": 1567,
      "told": 1568,
      "cho": 1569,
      "saw": 1570,
      "capital": 1571,
      "##istr": 1572,
      "try": 1573,
      "United": 1574,
      "makes": 1575,
      "exc": 1576,
      "##med": 1577,
      "idea": 1578,
      "##ored": 1579,
      "lim": 1580,
      "##rist": 1581,
      "##aking": 1582,
      "nice": 1583,
      "actually": 1584,
      "discuss": 1585,
      "six": 1586,
      "occ": 1587,
      "based": 1588,
      "##artment": 1589,
      "Tupp": 1590,
      "yes": 1591,
      "mus": 1592,
      "##line": 1593,
      "##ources": 1594,
      "##eng": 1595,
      "##ommy": 1596,
      "Tuppence": 1597,
      "Pr": 1598,
      "beg": 1599,
      "##ensive": 1600,
      "orig": 1601,
      "Car": 1602,
      "Tommy": 1603,
      "pie": 1604,
      "##urs": 1605,
      "##itional": 1606,
      "making": 1607,
      "estim": 1608,
      "em": 1609,
      "##apan": 1610,
      "bar": 1611,
      "##idence": 1612,
      "including": 1613,
      "bro": 1614,
      "##ov": 1615,
      "Japan": 1616,
      "low": 1617,
      "mor": 1618,
      "##ument": 1619,
      "aw": 1620,
      "##ecut": 1621,
      "De": 1622,
      "##ividual": 1623,
      "vol": 1624,
      "States": 1625,
      "respons": 1626,
      "##hod": 1627,
      "saving": 1628,
      "half": 1629,
      "prom": 1630,
      "trying": 1631,
      "represent": 1632,
      "##cial": 1633,
      "word": 1634,
      "Pl": 1635,
      "##enn": 1636,
      "deal": 1637,
      "building": 1638,
      "cult": 1639,
      "cor": 1640,
      "ok": 1641,
      "question": 1642,
      "##ape": 1643,
      "love": 1644,
      "Or": 1645,
      "##ived": 1646,
      "##att": 1647,
      "hous": 1648,
      "##uation": 1649,
      "women": 1650,
      "ann": 1651,
      "##ries": 1652,
      "sug": 1653,
      "food": 1654,
      "pos": 1655,
      "##emp": 1656,
      "Con": 1657,
      "##lf": 1658,
      "ste": 1659,
      "win": 1660,
      "##ences": 1661,
      "vill": 1662,
      "complete": 1663,
      "ident": 1664,
      "changes": 1665,
      "##hold": 1666,
      "present": 1667,
      "whether": 1668,
      "##ott": 1669,
      "##ane": 1670,
      "needed": 1671,
      "##rop": 1672,
      "audit": 1673,
      "##br": 1674,
      "##aim": 1675,
      "rather": 1676,
      "company": 1677,
      "eng": 1678,
      "order": 1679,
      "##ully": 1680,
      "museum": 1681,
      "working": 1682,
      "true": 1683,
      "stuff": 1684,
      "author": 1685,
      "ca": 1686,
      "history": 1687,
      "17": 1688,
      "Sc": 1689,
      "today": 1690,
      "health": 1691,
      "##uture": 1692,
      "##ield": 1693,
      "bit": 1694,
      "sound": 1695,
      "okay": 1696,
      "bre": 1697,
      "black": 1698,
      "individual": 1699,
      "heard": 1700,
      "##ison": 1701,
      "##alls": 1702,
      "hold": 1703,
      "tot": 1704,
      "arch": 1705,
      "comput": 1706,
      "benefits": 1707,
      "clear": 1708,
      "York": 1709,
      "##ination": 1710,
      "Brit": 1711,
      "usually": 1712,
      "non": 1713,
      "center": 1714,
      "church": 1715,
      "Not": 1716,
      "Tex": 1717,
      "beaut": 1718,
      "mag": 1719,
      "seems": 1720,
      "within": 1721,
      "##lev": 1722,
      "example": 1723,
      "##ept": 1724,
      "buy": 1725,
      "either": 1726,
      "wind": 1727,
      "organizations": 1728,
      "Mu": 1729,
      "sing": 1730,
      "agree": 1731,
      "Eng": 1732,
      "port": 1733,
      "##ortun": 1734,
      "Man": 1735,
      "##ench": 1736,
      "##illed": 1737,
      "fil": 1738,
      "road": 1739,
      "ra": 1740,
      "Post": 1741,
      "##lished": 1742,
      "##utes": 1743,
      "wa": 1744,
      "lawy": 1745,
      "leg": 1746,
      "Christ": 1747,
      "##ik": 1748,
      "amount": 1749,
      "##undred": 1750,
      "##icult": 1751,
      "later": 1752,
      "needs": 1753,
      "yet": 1754,
      "##aces": 1755,
      "early": 1756,
      "interesting": 1757,
      "##ories": 1758,
      "issues": 1759,
      "become": 1760,
      "##na": 1761,
      "12": 1762,
      "south": 1763,
      "##iver": 1764,
      "signific": 1765,
      "include": 1766,
      "enter": 1767,
      "wond": 1768,
      "private": 1769,
      "future": 1770,
      "estab": 1771,
      "talking": 1772,
      "budget": 1773,
      "##ued": 1774,
      "possible": 1775,
      "##ister": 1776,
      "Ro": 1777,
      "lear": 1778,
      "Most": 1779,
      "address": 1780,
      "face": 1781,
      "sal": 1782,
      "manag": 1783,
      "easy": 1784,
      "##atic": 1785,
      "among": 1786,
      "##ivers": 1787,
      "travel": 1788,
      "north": 1789,
      "short": 1790,
      "##iod": 1791,
      "indust": 1792,
      "Par": 1793,
      "##PA": 1794,
      "##oci": 1795,
      "hundred": 1796,
      "poor": 1797,
      "analysis": 1798,
      "##ording": 1799,
      "Legal": 1800,
      "works": 1801,
      "outside": 1802,
      "miles": 1803,
      "gard": 1804,
      "##sw": 1805,
      "##by": 1806,
      "##ills": 1807,
      "coup": 1808,
      "remember": 1809,
      "##enty": 1810,
      "protect": 1811,
      "office": 1812,
      "matter": 1813,
      "##oman": 1814,
      "##ateg": 1815,
      "##abor": 1816,
      "knew": 1817,
      "fig": 1818,
      "##ove": 1819,
      "income": 1820,
      "##ows": 1821,
      "##ready": 1822,
      "attract": 1823,
      "worth": 1824,
      "across": 1825,
      "##val": 1826,
      "16": 1827,
      "fav": 1828,
      "intern": 1829,
      "held": 1830,
      "meas": 1831,
      "San": 1832,
      "##isc": 1833,
      "method": 1834,
      "final": 1835,
      "effective": 1836,
      "##earch": 1837,
      "suggest": 1838,
      "##elt": 1839,
      "##atory": 1840,
      "##aur": 1841,
      "Sec": 1842,
      "cra": 1843,
      "hor": 1844,
      "##though": 1845,
      "already": 1846,
      "started": 1847,
      "close": 1848,
      "##band": 1849,
      "systems": 1850,
      "particular": 1851,
      "##itions": 1852,
      "bur": 1853,
      "access": 1854,
      "looking": 1855,
      "##ising": 1856,
      "##aps": 1857,
      "quality": 1858,
      "drug": 1859,
      "others": 1860,
      "daan": 1861,
      "la": 1862,
      "##irl": 1863,
      "mind": 1864,
      "##uce": 1865,
      "someone": 1866,
      "given": 1867,
      "toget": 1868,
      "difficult": 1869,
      "##par": 1870,
      "together": 1871,
      "rate": 1872,
      "French": 1873,
      "period": 1874,
      "using": 1875,
      "value": 1876,
      "##over": 1877,
      "hours": 1878,
      "##iron": 1879,
      "taken": 1880,
      "##rin": 1881,
      "##0s": 1882,
      "cann": 1883,
      "team": 1884,
      "staff": 1885,
      "sol": 1886,
      "##ilities": 1887,
      "dest": 1888,
      "##where": 1889,
      "door": 1890,
      "##viron": 1891,
      "##iding": 1892,
      "foc": 1893,
      "ple": 1894,
      "cat": 1895,
      "##vious": 1896,
      "ten": 1897,
      "##reet": 1898,
      "results": 1899,
      "maybe": 1900,
      "##gle": 1901,
      "hus": 1902,
      "couldn": 1903,
      "move": 1904,
      "##ilar": 1905,
      "months": 1906,
      "significant": 1907,
      "##oke": 1908,
      "Every": 1909,
      "enc": 1910,
      "modern": 1911,
      "abs": 1912,
      "ground": 1913,
      "president": 1914,
      "mom": 1915,
      "compet": 1916,
      "shows": 1917,
      "technology": 1918,
      "Per": 1919,
      "special": 1920,
      "##ney": 1921,
      "##me": 1922,
      "With": 1923,
      "paint": 1924,
      "desc": 1925,
      "Go": 1926,
      "security": 1927,
      "sun": 1928,
      "music": 1929,
      "death": 1930,
      "Ed": 1931,
      "execut": 1932,
      "himself": 1933,
      "husband": 1934,
      "eight": 1935,
      "##unt": 1936,
      "simp": 1937,
      "##ming": 1938,
      "Eur": 1939,
      "##acy": 1940,
      "Se": 1941,
      "ap": 1942,
      "So": 1943,
      "##ume": 1944,
      "consider": 1945,
      "tow": 1946,
      "exist": 1947,
      "dollars": 1948,
      "National": 1949,
      "general": 1950,
      "fail": 1951,
      "due": 1952,
      "improve": 1953,
      "##itting": 1954,
      "##ze": 1955,
      "##cially": 1956,
      "Bar": 1957,
      "Me": 1958,
      "sent": 1959,
      "Col": 1960,
      "hig": 1961,
      "##iter": 1962,
      "##orpor": 1963,
      "##chie": 1964,
      "typ": 1965,
      "sort": 1966,
      "##ole": 1967,
      "##ges": 1968,
      "ask": 1969,
      "##vironment": 1970,
      "##erc": 1971,
      "Federal": 1972,
      "compan": 1973,
      "##selves": 1974,
      "##bs": 1975,
      "official": 1976,
      "ce": 1977,
      "line": 1978,
      "increase": 1979,
      "necess": 1980,
      "pal": 1981,
      "##ese": 1982,
      "##inistr": 1983,
      "coast": 1984,
      "##ousand": 1985,
      "fish": 1986,
      "##ivil": 1987,
      "paper": 1988,
      "areas": 1989,
      "Many": 1990,
      "Don": 1991,
      "infl": 1992,
      "required": 1993,
      "fine": 1994,
      "pot": 1995,
      "##iving": 1996,
      "cases": 1997,
      "everyone": 1998,
      "considered": 1999,
      "current": 2000,
      "##work": 2001,
      "white": 2002,
      "claim": 2003,
      "##mbers": 2004,
      "##tain": 2005,
      "woman": 2006,
      "became": 2007,
      "Europe": 2008,
      "deb": 2009,
      "##itive": 2010,
      "##raph": 2011,
      "affect": 2012,
      "After": 2013,
      "park": 2014,
      "##omes": 2015,
      "Just": 2016,
      "Pres": 2017,
      "regul": 2018,
      "standards": 2019,
      "movie": 2020,
      "ones": 2021,
      "beautif": 2022,
      "People": 2023,
      "members": 2024,
      "profess": 2025,
      "risk": 2026,
      "##sc": 2027,
      "##ius": 2028,
      "##fully": 2029,
      "concern": 2030,
      "mount": 2031,
      "##rict": 2032,
      "answ": 2033,
      "##gress": 2034,
      "sell": 2035,
      "cannot": 2036,
      "policy": 2037,
      "requirements": 2038,
      "summer": 2039,
      "model": 2040,
      "##ohol": 2041,
      "return": 2042,
      "##cohol": 2043,
      "##irc": 2044,
      "girl": 2045,
      "sometimes": 2046,
      "famous": 2047,
      "##bor": 2048,
      "##hern": 2049,
      "US": 2050,
      "Texas": 2051,
      "light": 2052,
      "determ": 2053,
      "gave": 2054,
      "organization": 2055,
      "colle": 2056,
      "wouldn": 2057,
      "lost": 2058,
      "foot": 2059,
      "##rect": 2060,
      "pub": 2061,
      "sty": 2062,
      "##amed": 2063,
      "init": 2064,
      "record": 2065,
      "economic": 2066,
      "##ny": 2067,
      "##ama": 2068,
      "haven": 2069,
      "##osp": 2070,
      "##itted": 2071,
      "Acc": 2072,
      "##atives": 2073,
      "doc": 2074,
      "##aches": 2075,
      "##ffic": 2076,
      "##ony": 2077,
      "jud": 2078,
      "##unch": 2079,
      "type": 2080,
      "felt": 2081,
      "##ogn": 2082,
      "British": 2083,
      "##ches": 2084,
      "object": 2085,
      "fight": 2086,
      "##reed": 2087,
      "Ital": 2088,
      "political": 2089,
      "House": 2090,
      "implement": 2091,
      "thousand": 2092,
      "computer": 2093,
      "##ica": 2094,
      "bring": 2095,
      "strong": 2096,
      "turned": 2097,
      "behind": 2098,
      "##ator": 2099,
      "age": 2100,
      "assist": 2101,
      "##yn": 2102,
      "Am": 2103,
      "favor": 2104,
      "Pal": 2105,
      "##edic": 2106,
      "rules": 2107,
      "couple": 2108,
      "pick": 2109,
      "##aves": 2110,
      "demand": 2111,
      "##pecially": 2112,
      "inde": 2113,
      "##ify": 2114,
      "impact": 2115,
      "companies": 2116,
      "Service": 2117,
      "Republic": 2118,
      "##app": 2119,
      "specific": 2120,
      "accept": 2121,
      "studies": 2122,
      "ant": 2123,
      "anyone": 2124,
      "exact": 2125,
      "collection": 2126,
      "##umb": 2127,
      "eyes": 2128,
      "takes": 2129,
      "bra": 2130,
      "miss": 2131,
      "##uced": 2132,
      "Street": 2133,
      "achie": 2134,
      "scen": 2135,
      "wrong": 2136,
      "single": 2137,
      "Drew": 2138,
      "constr": 2139,
      "wife": 2140,
      "leave": 2141,
      "boy": 2142,
      "subject": 2143,
      "##oor": 2144,
      "Was": 2145,
      "workers": 2146,
      "White": 2147,
      "entire": 2148,
      "employees": 2149,
      "regard": 2150,
      "##ax": 2151,
      "##ety": 2152,
      "arg": 2153,
      "especially": 2154,
      "Jew": 2155,
      "restaur": 2156,
      "cred": 2157,
      "dou": 2158,
      "Sl": 2159,
      "pur": 2160,
      "goes": 2161,
      "resources": 2162,
      "particip": 2163,
      "grant": 2164,
      "total": 2165,
      "##stit": 2166,
      "educ": 2167,
      "quick": 2168,
      "rout": 2169,
      "dev": 2170,
      "Adrin": 2171,
      "14": 2172,
      "sil": 2173,
      "##iol": 2174,
      "sat": 2175,
      "##son": 2176,
      "##ium": 2177,
      "##iddle": 2178,
      "Res": 2179,
      "comes": 2180,
      "community": 2181,
      "Ne": 2182,
      "##ead": 2183,
      "begin": 2184,
      "30": 2185,
      "##asing": 2186,
      "court": 2187,
      "likely": 2188,
      "related": 2189,
      "involved": 2190,
      "har": 2191,
      "hear": 2192,
      "Gen": 2193,
      "human": 2194,
      "Tr": 2195,
      "began": 2196,
      "defin": 2197,
      "houses": 2198,
      "states": 2199,
      "activities": 2200,
      "wonder": 2201,
      "##lex": 2202,
      "offer": 2203,
      "delivery": 2204,
      "sn": 2205,
      "##ators": 2206,
      "recogn": 2207,
      "provided": 2208,
      "##cient": 2209,
      "##ential": 2210,
      "themselves": 2211,
      "##ball": 2212,
      "longer": 2213,
      "##amb": 2214,
      "step": 2215,
      "arm": 2216,
      "##den": 2217,
      "development": 2218,
      "fall": 2219,
      "America": 2220,
      "##use": 2221,
      "depend": 2222,
      "##ended": 2223,
      "price": 2224,
      "dom": 2225,
      "##yc": 2226,
      "##ots": 2227,
      "II": 2228,
      "squ": 2229,
      "environment": 2230,
      "##uses": 2231,
      "alcohol": 2232,
      "##stant": 2233,
      "worked": 2234,
      "Jul": 2235,
      "issue": 2236,
      "Cent": 2237,
      "beautiful": 2238,
      "##fect": 2239,
      "##bert": 2240,
      "France": 2241,
      "famil": 2242,
      "##lin": 2243,
      "research": 2244,
      "ele": 2245,
      "President": 2246,
      "Roman": 2247,
      "War": 2248,
      "198": 2249,
      "TV": 2250,
      "similar": 2251,
      "##aving": 2252,
      "##oud": 2253,
      "##oyal": 2254,
      "##hib": 2255,
      "comments": 2256,
      "aren": 2257,
      "huge": 2258,
      "population": 2259,
      "sense": 2260,
      "##ique": 2261,
      "Poir": 2262,
      "drink": 2263,
      "planning": 2264,
      "##pri": 2265,
      "##augh": 2266,
      "charact": 2267,
      "Poirot": 2268,
      "rock": 2269,
      "##ping": 2270,
      "tried": 2271,
      "##ocr": 2272,
      "mem": 2273,
      "taking": 2274,
      "however": 2275,
      "However": 2276,
      "self": 2277,
      "soon": 2278,
      "eval": 2279,
      "press": 2280,
      "##istic": 2281,
      "##isions": 2282,
      "##ai": 2283,
      "##ung": 2284,
      "proposed": 2285,
      "##urther": 2286,
      "##itor": 2287,
      "civil": 2288,
      "##itect": 2289,
      "##row": 2290,
      "##oint": 2291,
      "means": 2292,
      "fore": 2293,
      "personal": 2294,
      "parents": 2295,
      "front": 2296,
      "coming": 2297,
      "Commission": 2298,
      "expensive": 2299,
      "maint": 2300,
      "##fact": 2301,
      "treat": 2302,
      "Soc": 2303,
      "appropri": 2304,
      "Bl": 2305,
      "Ass": 2306,
      "emer": 2307,
      "cal": 2308,
      "Fin": 2309,
      "Mon": 2310,
      "industry": 2311,
      "proper": 2312,
      "##ened": 2313,
      "speak": 2314,
      "wat": 2315,
      "##view": 2316,
      "received": 2317,
      "By": 2318,
      "##ek": 2319,
      "11": 2320,
      "##oura": 2321,
      "Mrs": 2322,
      "##haps": 2323,
      "hands": 2324,
      "brought": 2325,
      "net": 2326,
      "intervent": 2327,
      "nation": 2328,
      "architect": 2329,
      "Law": 2330,
      "above": 2331,
      "relig": 2332,
      "##ledge": 2333,
      "heart": 2334,
      "morning": 2335,
      "Ge": 2336,
      "minutes": 2337,
      "friends": 2338,
      "13": 2339,
      "##itary": 2340,
      "describ": 2341,
      "Cal": 2342,
      "evidence": 2343,
      "histor": 2344,
      "living": 2345,
      "##aign": 2346,
      "mult": 2347,
      "reports": 2348,
      "questions": 2349,
      "detail": 2350,
      "##rible": 2351,
      "economy": 2352,
      "obs": 2353,
      "##oes": 2354,
      "100": 2355,
      "viol": 2356,
      "struct": 2357,
      "experience": 2358,
      "sett": 2359,
      "recomm": 2360,
      "##aining": 2361,
      "##ring": 2362,
      "Off": 2363,
      "lived": 2364,
      "State": 2365,
      "##let": 2366,
      "ens": 2367,
      "##reme": 2368,
      "del": 2369,
      "changed": 2370,
      "opt": 2371,
      "##ike": 2372,
      "contract": 2373,
      "purp": 2374,
      "News": 2375,
      "##ival": 2376,
      "King": 2377,
      "##ler": 2378,
      "sold": 2379,
      "##airs": 2380,
      "refer": 2381,
      "influ": 2382,
      "##ires": 2383,
      "late": 2384,
      "places": 2385,
      "assess": 2386,
      "May": 2387,
      "temple": 2388,
      "village": 2389,
      "Ph": 2390,
      "books": 2391,
      "##rit": 2392,
      "##ols": 2393,
      "Wor": 2394,
      "avo": 2395,
      "happened": 2396,
      "##gypt": 2397,
      "contrib": 2398,
      "allowed": 2399,
      "div": 2400,
      "gets": 2401,
      "surpr": 2402,
      "circ": 2403,
      "pain": 2404,
      "##gency": 2405,
      "campaign": 2406,
      "##ograph": 2407,
      "weather": 2408,
      "reporting": 2409,
      "completely": 2410,
      "Intern": 2411,
      "Yes": 2412,
      "Egypt": 2413,
      "##ox": 2414,
      "##ann": 2415,
      "exactly": 2416,
      "##ustom": 2417,
      "##ging": 2418,
      "common": 2419,
      "gone": 2420,
      "##ades": 2421,
      "moment": 2422,
      "base": 2423,
      "street": 2424,
      "sex": 2425,
      "college": 2426,
      "kept": 2427,
      "piece": 2428,
      "opportun": 2429,
      "style": 2430,
      "Gu": 2431,
      "mother": 2432,
      "Ho": 2433,
      "funding": 2434,
      "defe": 2435,
      "trou": 2436,
      "displ": 2437,
      "key": 2438,
      "Julius": 2439,
      "##iqu": 2440,
      "dead": 2441,
      "associ": 2442,
      "itself": 2443,
      "appear": 2444,
      "James": 2445,
      "Museum": 2446,
      "attor": 2447,
      "approach": 2448,
      "##ores": 2449,
      "leaders": 2450,
      "happy": 2451,
      "fif": 2452,
      "vo": 2453,
      "wide": 2454,
      "##imin": 2455,
      "original": 2456,
      "Germ": 2457,
      "bed": 2458,
      "pict": 2459,
      "perfect": 2460,
      "rates": 2461,
      "##ites": 2462,
      "neg": 2463,
      "Pol": 2464,
      "Port": 2465,
      "lower": 2466,
      "##rupt": 2467,
      "break": 2468,
      "##iled": 2469,
      "poll": 2470,
      "decided": 2471,
      "EPA": 2472,
      "##gn": 2473,
      "attention": 2474,
      "Postal": 2475,
      "##ceed": 2476,
      "##inese": 2477,
      "expected": 2478,
      "Even": 2479,
      "Govern": 2480,
      "##urance": 2481,
      "buildings": 2482,
      "Fl": 2483,
      "unc": 2484,
      "chall": 2485,
      "saying": 2486,
      "neigh": 2487,
      "Services": 2488,
      "ill": 2489,
      "paid": 2490,
      "plans": 2491,
      "##isl": 2492,
      "designed": 2493,
      "##ially": 2494,
      "##ental": 2495,
      "##eter": 2496,
      "ways": 2497,
      "##owd": 2498,
      "created": 2499,
      "Red": 2500,
      "##hington": 2501,
      "necessary": 2502,
      "bal": 2503,
      "Chinese": 2504,
      "fort": 2505,
      "located": 2506,
      "##oon": 2507,
      "##head": 2508,
      "Washington": 2509,
      "Dep": 2510,
      "recent": 2511,
      "##issions": 2512,
      "fair": 2513,
      "third": 2514,
      "Comp": 2515,
      "anim": 2516,
      "decision": 2517,
      "##ction": 2518,
      "##estern": 2519,
      "2000": 2520,
      "cop": 2521,
      "##lied": 2522,
      "field": 2523,
      "##osing": 2524,
      "hur": 2525,
      "addition": 2526,
      "request": 2527,
      "##round": 2528,
      "Geor": 2529,
      "moved": 2530,
      "##incip": 2531,
      "event": 2532,
      "##ena": 2533,
      "twenty": 2534,
      "ancient": 2535,
      "trees": 2536,
      "Jer": 2537,
      "stra": 2538,
      "visitors": 2539,
      "##attle": 2540,
      "Bush": 2541,
      "##ached": 2542,
      "standard": 2543,
      "rid": 2544,
      "shr": 2545,
      "arri": 2546,
      "English": 2547,
      "respect": 2548,
      "applic": 2549,
      "seemed": 2550,
      "##ams": 2551,
      "knowledge": 2552,
      "##urg": 2553,
      "higher": 2554,
      "Her": 2555,
      "west": 2556,
      "##oph": 2557,
      "foreign": 2558,
      "tend": 2559,
      "##venue": 2560,
      "situation": 2561,
      "drive": 2562,
      "Office": 2563,
      "social": 2564,
      "groups": 2565,
      "##erous": 2566,
      "##atever": 2567,
      "##ief": 2568,
      "prep": 2569,
      "prefer": 2570,
      "##irt": 2571,
      "game": 2572,
      "##ization": 2573,
      "hope": 2574,
      "##iety": 2575,
      "##olution": 2576,
      "Mc": 2577,
      "##ped": 2578,
      "funds": 2579,
      "chance": 2580,
      "words": 2581,
      "pen": 2582,
      "attack": 2583,
      "##for": 2584,
      "nat": 2585,
      "effic": 2586,
      "##rod": 2587,
      "fire": 2588,
      "arr": 2589,
      "action": 2590,
      "lawyers": 2591,
      "World": 2592,
      "investment": 2593,
      "mot": 2594,
      "recently": 2595,
      "Can": 2596,
      "Saint": 2597,
      "coun": 2598,
      "labor": 2599,
      "##nect": 2600,
      "artic": 2601,
      "##umpt": 2602,
      "acqu": 2603,
      "##iff": 2604,
      "plant": 2605,
      "##itely": 2606,
      "spent": 2607,
      "Gree": 2608,
      "##of": 2609,
      "sen": 2610,
      "east": 2611,
      "eat": 2612,
      "##ronic": 2613,
      "lack": 2614,
      "##lus": 2615,
      "household": 2616,
      "Our": 2617,
      "relations": 2618,
      "instead": 2619,
      "##ript": 2620,
      "river": 2621,
      "item": 2622,
      "dog": 2623,
      "princip": 2624,
      "surround": 2625,
      "military": 2626,
      "Bo": 2627,
      "##itten": 2628,
      "##udd": 2629,
      "section": 2630,
      "##omb": 2631,
      "taxes": 2632,
      "views": 2633,
      "select": 2634,
      "included": 2635,
      "serious": 2636,
      "Mal": 2637,
      "independ": 2638,
      "##zz": 2639,
      "##ude": 2640,
      "##ification": 2641,
      "mur": 2642,
      "wood": 2643,
      "##akes": 2644,
      "countries": 2645,
      "##port": 2646,
      "spending": 2647,
      "grand": 2648,
      "##ressed": 2649,
      "inside": 2650,
      "trip": 2651,
      "From": 2652,
      "##set": 2653,
      "Lou": 2654,
      "##ara": 2655,
      "Reg": 2656,
      "son": 2657,
      "##atter": 2658,
      "##cell": 2659,
      "cast": 2660,
      "separ": 2661,
      "Ingle": 2662,
      "Cour": 2663,
      "clients": 2664,
      "Security": 2665,
      "Tw": 2666,
      "##izing": 2667,
      "Now": 2668,
      "complex": 2669,
      "##aught": 2670,
      "mess": 2671,
      "Ingleth": 2672,
      "##iversity": 2673,
      "vot": 2674,
      "##uries": 2675,
      "##ights": 2676,
      "##ana": 2677,
      "##sh": 2678,
      "focus": 2679,
      "reported": 2680,
      "Mary": 2681,
      "culture": 2682,
      "beach": 2683,
      "soft": 2684,
      "shops": 2685,
      "draw": 2686,
      "Ab": 2687,
      "provides": 2688,
      "streets": 2689,
      "Inglethorp": 2690,
      "##rael": 2691,
      "supposed": 2692,
      "##pite": 2693,
      "##lebr": 2694,
      "reach": 2695,
      "seven": 2696,
      "Israel": 2697,
      "character": 2698,
      "sea": 2699,
      "died": 2700,
      "except": 2701,
      "Well": 2702,
      "guy": 2703,
      "##irty": 2704,
      "##ource": 2705,
      "administr": 2706,
      "kill": 2707,
      "##yond": 2708,
      "##hood": 2709,
      "##uly": 2710,
      "##ises": 2711,
      "following": 2712,
      "##oring": 2713,
      "##ulpt": 2714,
      "##itors": 2715,
      "Co": 2716,
      "En": 2717,
      "Other": 2718,
      "hon": 2719,
      "El": 2720,
      "##ims": 2721,
      "comb": 2722,
      "wants": 2723,
      "##vert": 2724,
      "gold": 2725,
      "Will": 2726,
      "stri": 2727,
      "##aced": 2728,
      "strateg": 2729,
      "##uments": 2730,
      "##angu": 2731,
      "Part": 2732,
      "benefit": 2733,
      "fell": 2734,
      "efforts": 2735,
      "mass": 2736,
      "Sant": 2737,
      "gun": 2738,
      "laws": 2739,
      "exam": 2740,
      "##ipment": 2741,
      "appe": 2742,
      "Span": 2743,
      "practices": 2744,
      "pack": 2745,
      "trade": 2746,
      "conduct": 2747,
      "Paris": 2748,
      "mater": 2749,
      "sand": 2750,
      "##IO": 2751,
      "##oming": 2752,
      "screen": 2753,
      "imm": 2754,
      "##aries": 2755,
      "##une": 2756,
      "Miss": 2757,
      "deep": 2758,
      "Although": 2759,
      "growth": 2760,
      "legisl": 2761,
      "City": 2762,
      "body": 2763,
      "father": 2764,
      "##apers": 2765,
      "Then": 2766,
      "ord": 2767,
      "##idents": 2768,
      "position": 2769,
      "remains": 2770,
      "slow": 2771,
      "Dav": 2772,
      "Russ": 2773,
      "50": 2774,
      "Social": 2775,
      "TI": 2776,
      "creat": 2777,
      "mer": 2778,
      "##arch": 2779,
      "stock": 2780,
      "feat": 2781,
      "##hers": 2782,
      "aver": 2783,
      "##ware": 2784,
      "##arily": 2785,
      "hop": 2786,
      "##ufact": 2787,
      "##vings": 2788,
      "fre": 2789,
      "share": 2790,
      "sculpt": 2791,
      "garden": 2792,
      "cause": 2793,
      "celebr": 2794,
      "##xic": 2795,
      "dam": 2796,
      "reflect": 2797,
      "ran": 2798,
      "##ourn": 2799,
      "covered": 2800,
      "West": 2801,
      "##allas": 2802,
      "thinking": 2803,
      "##uth": 2804,
      "whatever": 2805,
      "prices": 2806,
      "narr": 2807,
      "##bers": 2808,
      "##roy": 2809,
      "Old": 2810,
      "save": 2811,
      "##ological": 2812,
      "further": 2813,
      "clot": 2814,
      "former": 2815,
      "God": 2816,
      "soci": 2817,
      "custom": 2818,
      "crowd": 2819,
      "middle": 2820,
      "##igr": 2821,
      "prim": 2822,
      "Dallas": 2823,
      "Sch": 2824,
      "phys": 2825,
      "myself": 2826,
      "interested": 2827,
      "Qu": 2828,
      "sle": 2829,
      "Americans": 2830,
      "credit": 2831,
      "ban": 2832,
      "km": 2833,
      "##ino": 2834,
      "size": 2835,
      "party": 2836,
      "traditional": 2837,
      "vict": 2838,
      "season": 2839,
      "engine": 2840,
      "trust": 2841,
      "correct": 2842,
      "##oses": 2843,
      "document": 2844,
      "link": 2845,
      "annual": 2846,
      "stone": 2847,
      "repl": 2848,
      "emb": 2849,
      "vote": 2850,
      "various": 2851,
      "doub": 2852,
      "written": 2853,
      "broad": 2854,
      "training": 2855,
      "older": 2856,
      "cold": 2857,
      "role": 2858,
      "Dem": 2859,
      "Tur": 2860,
      "education": 2861,
      "Emp": 2862,
      "heav": 2863,
      "voice": 2864,
      "figure": 2865,
      "Sen": 2866,
      "##more": 2867,
      "langu": 2868,
      "##ha": 2869,
      "Government": 2870,
      "anyway": 2871,
      "quar": 2872,
      "answer": 2873,
      "quickly": 2874,
      "Spanish": 2875,
      "increased": 2876,
      "demon": 2877,
      "25": 2878,
      "material": 2879,
      "range": 2880,
      "##lly": 2881,
      "region": 2882,
      "developed": 2883,
      "published": 2884,
      "doct": 2885,
      "additional": 2886,
      "App": 2887,
      "sus": 2888,
      "floor": 2889,
      "##ey": 2890,
      "lives": 2891,
      "throughout": 2892,
      "alone": 2893,
      "Japanese": 2894,
      "Mic": 2895,
      "##come": 2896,
      "running": 2897,
      "sites": 2898,
      "peace": 2899,
      "unf": 2900,
      "blood": 2901,
      "General": 2902,
      "Times": 2903,
      "##asc": 2904,
      "Mad": 2905,
      "##umn": 2906,
      "indic": 2907,
      "pred": 2908,
      "prior": 2909,
      "dark": 2910,
      "table": 2911,
      "movies": 2912,
      "entities": 2913,
      "green": 2914,
      "##ror": 2915,
      "##nds": 2916,
      "retire": 2917,
      "##egr": 2918,
      "attemp": 2919,
      "China": 2920,
      "norm": 2921,
      "hit": 2922,
      "##ster": 2923,
      "central": 2924,
      "largest": 2925,
      "weeks": 2926,
      "critical": 2927,
      "bill": 2928,
      "named": 2929,
      "palace": 2930,
      "adj": 2931,
      "Val": 2932,
      "install": 2933,
      "equipment": 2934,
      "mach": 2935,
      "bon": 2936,
      "learn": 2937,
      "pleas": 2938,
      "includes": 2939,
      "established": 2940,
      "recommend": 2941,
      "##ipp": 2942,
      "quiet": 2943,
      "comment": 2944,
      "encoura": 2945,
      "##asons": 2946,
      "##estic": 2947,
      "swe": 2948,
      "crime": 2949,
      "##ivity": 2950,
      "manufact": 2951,
      "surv": 2952,
      "cook": 2953,
      "##imate": 2954,
      "imag": 2955,
      "executive": 2956,
      "notice": 2957,
      "bought": 2958,
      "altern": 2959,
      "round": 2960,
      "Oh": 2961,
      "South": 2962,
      "##yp": 2963,
      "upon": 2964,
      "emissions": 2965,
      "definitely": 2966,
      "goals": 2967,
      "##ode": 2968,
      "check": 2969,
      "Mus": 2970,
      "##lo": 2971,
      "##rap": 2972,
      "pull": 2973,
      "assistance": 2974,
      "toward": 2975,
      "Jes": 2976,
      "cand": 2977,
      "##ux": 2978,
      "##roll": 2979,
      "proced": 2980,
      "##room": 2981,
      "##olute": 2982,
      "##ittee": 2983,
      "choice": 2984,
      "decl": 2985,
      "Sir": 2986,
      "continue": 2987,
      "fix": 2988,
      "connect": 2989,
      "train": 2990,
      "below": 2991,
      "North": 2992,
      "##men": 2993,
      "##medi": 2994,
      "wealth": 2995,
      "according": 2996,
      "difference": 2997,
      "Time": 2998,
      "construction": 2999,
      "wish": 3000,
      "##go": 3001,
      "nort": 3002,
      "opin": 3003,
      "looks": 3004,
      "trouble": 3005,
      "rights": 3006,
      "sky": 3007,
      "##iques": 3008,
      "basis": 3009,
      "natural": 3010,
      "##olf": 3011,
      "Gr": 3012,
      "fres": 3013,
      "Only": 3014,
      "islands": 3015,
      "##idge": 3016,
      "card": 3017,
      "threat": 3018,
      "listen": 3019,
      "More": 3020,
      "led": 3021,
      "##ady": 3022,
      "favorite": 3023,
      "appropriate": 3024,
      "Cle": 3025,
      "##sy": 3026,
      "Fir": 3027,
      "Indian": 3028,
      "page": 3029,
      "relationship": 3030,
      "Ben": 3031,
      "beyond": 3032,
      "afford": 3033,
      "corn": 3034,
      "reduce": 3035,
      "phot": 3036,
      "carry": 3037,
      "patients": 3038,
      "pan": 3039,
      "##che": 3040,
      "##burg": 3041,
      "super": 3042,
      "tourists": 3043,
      "effects": 3044,
      "consist": 3045,
      "terrible": 3046,
      "##aughter": 3047,
      "er": 3048,
      "destroy": 3049,
      "average": 3050,
      "walls": 3051,
      "terms": 3052,
      "##uted": 3053,
      "##iling": 3054,
      "offers": 3055,
      "197": 3056,
      "deliver": 3057,
      "reform": 3058,
      "entr": 3059,
      "Tod": 3060,
      "increasing": 3061,
      "While": 3062,
      "easily": 3063,
      "generally": 3064,
      "Gra": 3065,
      "practice": 3066,
      "Louis": 3067,
      "perhaps": 3068,
      "inn": 3069,
      "wrote": 3070,
      "department": 3071,
      "spot": 3072,
      "##owers": 3073,
      "##usal": 3074,
      "##ky": 3075,
      "occur": 3076,
      "##ables": 3077,
      "##ream": 3078,
      "serve": 3079,
      "clean": 3080,
      "evalu": 3081,
      "wall": 3082,
      "##enced": 3083,
      "watching": 3084,
      "Bec": 3085,
      "establish": 3086,
      "beaches": 3087,
      "Its": 3088,
      "fast": 3089,
      "##utions": 3090,
      "hill": 3091,
      "##iced": 3092,
      "certainly": 3093,
      "feet": 3094,
      "Sm": 3095,
      "whose": 3096,
      "##erved": 3097,
      "glass": 3098,
      "##ression": 3099,
      "events": 3100,
      "hotels": 3101,
      "restaurants": 3102,
      "##astic": 3103,
      "king": 3104,
      "horse": 3105,
      "bye": 3106,
      "fa": 3107,
      "ign": 3108,
      "Why": 3109,
      "drugs": 3110,
      "origin": 3111,
      "vers": 3112,
      "##hel": 3113,
      "justice": 3114,
      "Temp": 3115,
      "neighbor": 3116,
      "##ask": 3117,
      "officials": 3118,
      "everybody": 3119,
      "extra": 3120,
      "film": 3121,
      "helped": 3122,
      "meeting": 3123,
      "##ban": 3124,
      "tomb": 3125,
      "growing": 3126,
      "##sequ": 3127,
      "Today": 3128,
      "volume": 3129,
      "##ift": 3130,
      "Slate": 3131,
      "nature": 3132,
      "force": 3133,
      "schools": 3134,
      "pieces": 3135,
      "##aded": 3136,
      "##ively": 3137,
      "sched": 3138,
      "previous": 3139,
      "Ir": 3140,
      "##ashion": 3141,
      "deg": 3142,
      "achieve": 3143,
      "ut": 3144,
      "1996": 3145,
      "initi": 3146,
      "Department": 3147,
      "exhib": 3148,
      "##xim": 3149,
      "##iction": 3150,
      "ensure": 3151,
      "Dave": 3152,
      "dang": 3153,
      "excell": 3154,
      "tourist": 3155,
      "commer": 3156,
      "types": 3157,
      "killed": 3158,
      "students": 3159,
      "##kes": 3160,
      "##iny": 3161,
      "authority": 3162,
      "absolute": 3163,
      "stood": 3164,
      "insurance": 3165,
      "particularly": 3166,
      "square": 3167,
      "corpor": 3168,
      "safe": 3169,
      "regular": 3170,
      "Ara": 3171,
      "dro": 3172,
      "guid": 3173,
      "board": 3174,
      "measure": 3175,
      "##co": 3176,
      "sounds": 3177,
      "bank": 3178,
      "purch": 3179,
      "rich": 3180,
      "products": 3181,
      "##uch": 3182,
      "hosp": 3183,
      "60": 3184,
      "levels": 3185,
      "lots": 3186,
      "##like": 3187,
      "Des": 3188,
      "Min": 3189,
      "cit": 3190,
      "##onse": 3191,
      "aid": 3192,
      "investig": 3193,
      "Jewish": 3194,
      "Ser": 3195,
      "##ests": 3196,
      "shopping": 3197,
      "sens": 3198,
      "##ips": 3199,
      "lawyer": 3200,
      "Park": 3201,
      "##wide": 3202,
      "extreme": 3203,
      "mention": 3204,
      "##rac": 3205,
      "##ournal": 3206,
      "##vey": 3207,
      "closed": 3208,
      "cities": 3209,
      "conv": 3210,
      "perm": 3211,
      "leading": 3212,
      "payments": 3213,
      "individuals": 3214,
      "##ios": 3215,
      "added": 3216,
      "families": 3217,
      "wild": 3218,
      "196": 3219,
      "2001": 3220,
      "language": 3221,
      "frequ": 3222,
      "knows": 3223,
      "effort": 3224,
      "multip": 3225,
      "cross": 3226,
      "letter": 3227,
      "jo": 3228,
      "Christian": 3229,
      "##erve": 3230,
      "##add": 3231,
      "phone": 3232,
      "hotel": 3233,
      "weap": 3234,
      "summ": 3235,
      "Hong": 3236,
      "##ones": 3237,
      "emergency": 3238,
      "Medic": 3239,
      "##uit": 3240,
      "##lled": 3241,
      "space": 3242,
      "station": 3243,
      "Democr": 3244,
      "ess": 3245,
      "din": 3246,
      "winter": 3247,
      "40": 3248,
      "First": 3249,
      "respond": 3250,
      "communic": 3251,
      "##back": 3252,
      "##uel": 3253,
      "David": 3254,
      "India": 3255,
      "##gas": 3256,
      "##imb": 3257,
      "production": 3258,
      "postal": 3259,
      "##wh": 3260,
      "Since": 3261,
      "Kong": 3262,
      "simply": 3263,
      "decor": 3264,
      "yourself": 3265,
      "color": 3266,
      "secret": 3267,
      "payment": 3268,
      "gardens": 3269,
      "simple": 3270,
      "mist": 3271,
      "playing": 3272,
      "district": 3273,
      "items": 3274,
      "somebody": 3275,
      "Ag": 3276,
      "Char": 3277,
      "excellent": 3278,
      "George": 3279,
      "Kal": 3280,
      "centuries": 3281,
      "##usalem": 3282,
      "integr": 3283,
      "##uctions": 3284,
      "display": 3285,
      "Jerusalem": 3286,
      "battle": 3287,
      "successful": 3288,
      "Court": 3289,
      "response": 3290,
      "Program": 3291,
      "##hedral": 3292,
      "prec": 3293,
      "structure": 3294,
      "##ille": 3295,
      "##anson": 3296,
      "##iar": 3297,
      "##oro": 3298,
      "##outhern": 3299,
      "mostly": 3300,
      "savings": 3301,
      "##AS": 3302,
      "passed": 3303,
      "prevent": 3304,
      "seek": 3305,
      "actions": 3306,
      "host": 3307,
      "mos": 3308,
      "##oles": 3309,
      "policies": 3310,
      "##ament": 3311,
      "requires": 3312,
      "medical": 3313,
      "operations": 3314,
      "ability": 3315,
      "nearly": 3316,
      "##MB": 3317,
      "accur": 3318,
      "##teen": 3319,
      "subm": 3320,
      "smaller": 3321,
      "reli": 3322,
      "##iscal": 3323,
      "religious": 3324,
      "receive": 3325,
      "##ops": 3326,
      "spoke": 3327,
      "wait": 3328,
      "limited": 3329,
      "Ma": 3330,
      "##het": 3331,
      "East": 3332,
      "##ulf": 3333,
      "anymore": 3334,
      "managers": 3335,
      "although": 3336,
      "gives": 3337,
      "served": 3338,
      "immedi": 3339,
      "mort": 3340,
      "believed": 3341,
      "According": 3342,
      "Har": 3343,
      "sho": 3344,
      "steps": 3345,
      "Imp": 3346,
      "Budd": 3347,
      "ren": 3348,
      "reasons": 3349,
      "Management": 3350,
      "Internet": 3351,
      "Ve": 3352,
      "ur": 3353,
      "##iring": 3354,
      "prison": 3355,
      "farm": 3356,
      "##lt": 3357,
      "##atively": 3358,
      "Calif": 3359,
      "luck": 3360,
      "OMB": 3361,
      "##ength": 3362,
      "##unk": 3363,
      "##ground": 3364,
      "La": 3365,
      "Temple": 3366,
      "Mart": 3367,
      "send": 3368,
      "##rief": 3369,
      "##lying": 3370,
      "CIO": 3371,
      "fashion": 3372,
      "##anced": 3373,
      "Cr": 3374,
      "retirement": 3375,
      "Greek": 3376,
      "Everyone": 3377,
      "capt": 3378,
      "senior": 3379,
      "ft": 3380,
      "column": 3381,
      "discount": 3382,
      "internal": 3383,
      "avoid": 3384,
      "truth": 3385,
      "paying": 3386,
      "rad": 3387,
      "Their": 3388,
      "contains": 3389,
      "god": 3390,
      "##erry": 3391,
      "responsible": 3392,
      "##ald": 3393,
      "lay": 3394,
      "##RA": 3395,
      "article": 3396,
      "ali": 3397,
      "Mich": 3398,
      "giving": 3399,
      "setting": 3400,
      "thirty": 3401,
      "##wise": 3402,
      "expert": 3403,
      "##ornia": 3404,
      "cars": 3405,
      "media": 3406,
      "mis": 3407,
      "##fort": 3408,
      "##change": 3409,
      "points": 3410,
      "estimates": 3411,
      "raised": 3412,
      "##ls": 3413,
      "bott": 3414,
      "teach": 3415,
      "obvious": 3416,
      "ready": 3417,
      "rap": 3418,
      "##aul": 3419,
      "##reci": 3420,
      "watched": 3421,
      "Two": 3422,
      "Because": 3423,
      "society": 3424,
      "methods": 3425,
      "Mor": 3426,
      "potential": 3427,
      "revenue": 3428,
      "##ett": 3429,
      "##ils": 3430,
      "##lier": 3431,
      "charge": 3432,
      "beginning": 3433,
      "Com": 3434,
      "tur": 3435,
      "##bed": 3436,
      "tar": 3437,
      "propos": 3438,
      "mand": 3439,
      "experi": 3440,
      "Sy": 3441,
      "goods": 3442,
      "finally": 3443,
      "Both": 3444,
      "adop": 3445,
      "disp": 3446,
      "useful": 3447,
      "path": 3448,
      "##neys": 3449,
      "##uary": 3450,
      "##aged": 3451,
      "married": 3452,
      "ine": 3453,
      "##asion": 3454,
      "purpose": 3455,
      "##icians": 3456,
      "suff": 3457,
      "stories": 3458,
      "rooms": 3459,
      "Hanson": 3460,
      "bab": 3461,
      "hate": 3462,
      "sword": 3463,
      "sector": 3464,
      "##yr": 3465,
      "narrow": 3466,
      "##icip": 3467,
      "##ira": 3468,
      "brother": 3469,
      "agreed": 3470,
      "Ste": 3471,
      "larger": 3472,
      "Italian": 3473,
      "spir": 3474,
      "demonstr": 3475,
      "Af": 3476,
      "mission": 3477,
      "inj": 3478,
      "vac": 3479,
      "forward": 3480,
      "stopped": 3481,
      "auditors": 3482,
      "##ocked": 3483,
      "influence": 3484,
      "box": 3485,
      "##gin": 3486,
      "rele": 3487,
      "Republicans": 3488,
      "den": 3489,
      "expand": 3490,
      "entrance": 3491,
      "billion": 3492,
      "##iant": 3493,
      "worse": 3494,
      "Ant": 3495,
      "exerc": 3496,
      "candid": 3497,
      "##oted": 3498,
      "advert": 3499,
      "parts": 3500,
      "decisions": 3501,
      "weeke": 3502,
      "debt": 3503,
      "date": 3504,
      "interview": 3505,
      "newsp": 3506,
      "lit": 3507,
      "mix": 3508,
      "tou": 3509,
      "tast": 3510,
      "##put": 3511,
      "magaz": 3512,
      "gall": 3513,
      "1999": 3514,
      "restrict": 3515,
      "earth": 3516,
      "Spain": 3517,
      "create": 3518,
      "variety": 3519,
      "reading": 3520,
      "hair": 3521,
      "##ustr": 3522,
      "##olid": 3523,
      "Justice": 3524,
      "Information": 3525,
      "remark": 3526,
      "continued": 3527,
      "magn": 3528,
      "##liance": 3529,
      "independent": 3530,
      "##iers": 3531,
      "Are": 3532,
      "Ven": 3533,
      "##lling": 3534,
      "pun": 3535,
      "talked": 3536,
      "bi": 3537,
      "Plan": 3538,
      "convers": 3539,
      "Gre": 3540,
      "Sal": 3541,
      "##rof": 3542,
      "wear": 3543,
      "##making": 3544,
      "##ously": 3545,
      "absolutely": 3546,
      "Aud": 3547,
      "Bill": 3548,
      "mill": 3549,
      "##wood": 3550,
      "discussed": 3551,
      "intervention": 3552,
      "towards": 3553,
      "destroyed": 3554,
      "associated": 3555,
      "##ners": 3556,
      "sports": 3557,
      "fem": 3558,
      "##orrow": 3559,
      "followed": 3560,
      "fishing": 3561,
      "wonderful": 3562,
      "Lake": 3563,
      "contr": 3564,
      "##umption": 3565,
      "mountains": 3566,
      "features": 3567,
      "offered": 3568,
      "grad": 3569,
      "adjust": 3570,
      "21": 3571,
      "Sim": 3572,
      "conserv": 3573,
      "Franc": 3574,
      "##ference": 3575,
      "Adm": 3576,
      "500": 3577,
      "##bo": 3578,
      "##itz": 3579,
      "##tend": 3580,
      "coll": 3581,
      "compl": 3582,
      "coff": 3583,
      "property": 3584,
      "remain": 3585,
      "Of": 3586,
      "catch": 3587,
      "fra": 3588,
      "##cil": 3589,
      "currently": 3590,
      "band": 3591,
      "tick": 3592,
      "regulations": 3593,
      "meant": 3594,
      "behav": 3595,
      "animals": 3596,
      "Ac": 3597,
      "politics": 3598,
      "liter": 3599,
      "worry": 3600,
      "opportunity": 3601,
      "Bay": 3602,
      "existing": 3603,
      "Your": 3604,
      "dress": 3605,
      "source": 3606,
      "##AT": 3607,
      "funny": 3608,
      "caught": 3609,
      "weak": 3610,
      "qual": 3611,
      "##hens": 3612,
      "##overed": 3613,
      "##hest": 3614,
      "Ange": 3615,
      "oppos": 3616,
      "##ucing": 3617,
      "providing": 3618,
      "enjoyed": 3619,
      "California": 3620,
      "Mount": 3621,
      "progress": 3622,
      "commercial": 3623,
      "##rif": 3624,
      "equal": 3625,
      "Dr": 3626,
      "Jama": 3627,
      "master": 3628,
      "European": 3629,
      "##force": 3630,
      "Jesus": 3631,
      "##eth": 3632,
      "basic": 3633,
      "ended": 3634,
      "England": 3635,
      "mountain": 3636,
      "swim": 3637,
      "international": 3638,
      "paintings": 3639,
      "straight": 3640,
      "mid": 3641,
      "rain": 3642,
      "factors": 3643,
      "condition": 3644,
      "representation": 3645,
      "entertain": 3646,
      "cathedral": 3647,
      "professional": 3648,
      "sight": 3649,
      "greater": 3650,
      "opened": 3651,
      "choose": 3652,
      "lose": 3653,
      "resort": 3654,
      "clock": 3655,
      "##ibilities": 3656,
      "Air": 3657,
      "disapp": 3658,
      "##week": 3659,
      "##ossible": 3660,
      "1998": 3661,
      "##mon": 3662,
      "entity": 3663,
      "played": 3664,
      "activity": 3665,
      "shot": 3666,
      "Brown": 3667,
      "Flor": 3668,
      "directly": 3669,
      "esc": 3670,
      "club": 3671,
      "liked": 3672,
      "flex": 3673,
      "mine": 3674,
      "##inct": 3675,
      "##itable": 3676,
      "cheap": 3677,
      "ahead": 3678,
      "##uing": 3679,
      "block": 3680,
      "affected": 3681,
      "multiple": 3682,
      "categ": 3683,
      "und": 3684,
      "##to": 3685,
      "##ulated": 3686,
      "blue": 3687,
      "jobs": 3688,
      "Cont": 3689,
      "oil": 3690,
      "willing": 3691,
      "estimated": 3692,
      "grew": 3693,
      "guide": 3694,
      "ideas": 3695,
      "##iles": 3696,
      "Stand": 3697,
      "loss": 3698,
      "rent": 3699,
      "hall": 3700,
      "ru": 3701,
      "reached": 3702,
      "##irth": 3703,
      "##ander": 3704,
      "series": 3705,
      "citiz": 3706,
      "af": 3707,
      "##ma": 3708,
      "claims": 3709,
      "gas": 3710,
      "meaning": 3711,
      "statements": 3712,
      "treatment": 3713,
      "opinion": 3714,
      "Jan": 3715,
      "##ado": 3716,
      "aware": 3717,
      "separate": 3718,
      "electric": 3719,
      "autom": 3720,
      "cash": 3721,
      "hang": 3722,
      "##ibly": 3723,
      "eye": 3724,
      "Robert": 3725,
      "##itch": 3726,
      "noted": 3727,
      "introd": 3728,
      "domestic": 3729,
      "Sup": 3730,
      "remained": 3731,
      "landsc": 3732,
      "appreci": 3733,
      "University": 3734,
      "defend": 3735,
      "rare": 3736,
      "starting": 3737,
      "##azz": 3738,
      "procedures": 3739,
      "##antage": 3740,
      "Here": 3741,
      "##ada": 3742,
      "amaz": 3743,
      "Italy": 3744,
      "ge": 3745,
      "##reg": 3746,
      "Church": 3747,
      "firm": 3748,
      "minute": 3749,
      "games": 3750,
      "##ded": 3751,
      "##key": 3752,
      "daughter": 3753,
      "doro": 3754,
      "royal": 3755,
      "##uk": 3756,
      "consum": 3757,
      "distrib": 3758,
      "##rial": 3759,
      "nine": 3760,
      "##ares": 3761,
      "repe": 3762,
      "Web": 3763,
      "doubt": 3764,
      "shown": 3765,
      "Count": 3766,
      "fiscal": 3767,
      "##cks": 3768,
      "beat": 3769,
      "Del": 3770,
      "seeing": 3771,
      "Cave": 3772,
      "sleep": 3773,
      "##ague": 3774,
      "##ults": 3775,
      "##levision": 3776,
      "Che": 3777,
      "##eror": 3778,
      "##erson": 3779,
      "shouldn": 3780,
      "location": 3781,
      "volunt": 3782,
      "regulatory": 3783,
      "##inated": 3784,
      "##inating": 3785,
      "##owing": 3786,
      "Those": 3787,
      "Ann": 3788,
      "instit": 3789,
      "Vegas": 3790,
      "Gore": 3791,
      "##artments": 3792,
      "ener": 3793,
      "estimate": 3794,
      "Mexic": 3795,
      "Pri": 3796,
      "kid": 3797,
      "##iest": 3798,
      "##ruct": 3799,
      "compared": 3800,
      "During": 3801,
      "##ps": 3802,
      "store": 3803,
      "Lew": 3804,
      "towns": 3805,
      "architecture": 3806,
      "Hall": 3807,
      "stores": 3808,
      "##kn": 3809,
      "despite": 3810,
      "ir": 3811,
      "evening": 3812,
      "decre": 3813,
      "impossible": 3814,
      "easier": 3815,
      "analy": 3816,
      "heavy": 3817,
      "bother": 3818,
      "feeling": 3819,
      "spect": 3820,
      "majority": 3821,
      "fully": 3822,
      "target": 3823,
      "Cap": 3824,
      "Sus": 3825,
      "reb": 3826,
      "boat": 3827,
      "positive": 3828,
      "hurt": 3829,
      "Made": 3830,
      "sitting": 3831,
      "thinks": 3832,
      "testing": 3833,
      "Las": 3834,
      "Somet": 3835,
      "assets": 3836,
      "Gl": 3837,
      "ep": 3838,
      "##itude": 3839,
      "identified": 3840,
      "##cl": 3841,
      "waiting": 3842,
      "quarter": 3843,
      "sac": 3844,
      "parties": 3845,
      "temples": 3846,
      "Aug": 3847,
      "prem": 3848,
      "thousands": 3849,
      "challeng": 3850,
      "ball": 3851,
      "##oms": 3852,
      "teac": 3853,
      "fresh": 3854,
      "oldest": 3855,
      "risks": 3856,
      "Rich": 3857,
      "##onna": 3858,
      "19th": 3859,
      "write": 3860,
      "calls": 3861,
      "function": 3862,
      "##riage": 3863,
      "failed": 3864,
      "##berg": 3865,
      "minim": 3866,
      "dollar": 3867,
      "route": 3868,
      "German": 3869,
      "brief": 3870,
      "dram": 3871,
      "identify": 3872,
      "##stitution": 3873,
      "attorneys": 3874,
      "##light": 3875,
      "##pper": 3876,
      "numbers": 3877,
      "##rid": 3878,
      "walking": 3879,
      "sales": 3880,
      "Newsweek": 3881,
      "corner": 3882,
      "impress": 3883,
      "transport": 3884,
      "July": 3885,
      "lake": 3886,
      "homes": 3887,
      "sud": 3888,
      "##levant": 3889,
      "Grand": 3890,
      "Let": 3891,
      "born": 3892,
      "##eren": 3893,
      "##lend": 3894,
      "##osure": 3895,
      "intended": 3896,
      "judge": 3897,
      "Sk": 3898,
      "forced": 3899,
      "objectives": 3900,
      "Susan": 3901,
      "wine": 3902,
      "Frank": 3903,
      "stayed": 3904,
      "regarding": 3905,
      "satis": 3906,
      "warm": 3907,
      "Associ": 3908,
      "murder": 3909,
      "sudden": 3910,
      "##ae": 3911,
      "extremely": 3912,
      "Martin": 3913,
      "DO": 3914,
      "du": 3915,
      "##rose": 3916,
      "nearby": 3917,
      "caused": 3918,
      "bono": 3919,
      "jury": 3920,
      "##iam": 3921,
      "##acity": 3922,
      "tele": 3923,
      "1997": 3924,
      "valley": 3925,
      "##oo": 3926,
      "statement": 3927,
      "##iveness": 3928,
      "##ula": 3929,
      "##izes": 3930,
      "earlier": 3931,
      "conditions": 3932,
      "##house": 3933,
      "pros": 3934,
      "insp": 3935,
      "Rec": 3936,
      "##isition": 3937,
      "liber": 3938,
      "##istics": 3939,
      "symb": 3940,
      "##aza": 3941,
      "clearly": 3942,
      "fle": 3943,
      "none": 3944,
      "##orc": 3945,
      "##see": 3946,
      "moving": 3947,
      "camping": 3948,
      "coffee": 3949,
      "Coun": 3950,
      "painted": 3951,
      "northern": 3952,
      "breat": 3953,
      "relax": 3954,
      "16th": 3955,
      "ride": 3956,
      "##ider": 3957,
      "##ji": 3958,
      "plants": 3959,
      "filled": 3960,
      "rural": 3961,
      "uses": 3962,
      "sup": 3963,
      "##burgh": 3964,
      "sou": 3965,
      "values": 3966,
      "completed": 3967,
      "daily": 3968,
      "suggested": 3969,
      "craft": 3970,
      "restaurant": 3971,
      "Great": 3972,
      "##ray": 3973,
      "##atal": 3974,
      "Each": 3975,
      "##nes": 3976,
      "##antic": 3977,
      "controls": 3978,
      "violence": 3979,
      "Micro": 3980,
      "Sund": 3981,
      "##verse": 3982,
      "Commun": 3983,
      "predict": 3984,
      "sources": 3985,
      "##lle": 3986,
      "assum": 3987,
      "August": 3988,
      "weren": 3989,
      "accounting": 3990,
      "18th": 3991,
      "generation": 3992,
      "concerned": 3993,
      "##ycle": 3994,
      "interventions": 3995,
      "Dan": 3996,
      "race": 3997,
      "Nap": 3998,
      "Nob": 3999,
      "##af": 4000,
      "cry": 4001,
      "clos": 4002,
      "electronic": 4003,
      "statue": 4004,
      "picture": 4005,
      "dedic": 4006,
      "tall": 4007,
      "comfort": 4008,
      "##ection": 4009,
      "television": 4010,
      "stands": 4011,
      "biggest": 4012,
      "Account": 4013,
      "Cons": 4014,
      "##ston": 4015,
      "##aped": 4016,
      "performed": 4017,
      "standing": 4018,
      "attorney": 4019,
      "Med": 4020,
      "vide": 4021,
      "##ago": 4022,
      "##ael": 4023,
      "##EC": 4024,
      "forg": 4025,
      "unit": 4026,
      "army": 4027,
      "Board": 4028,
      "Pat": 4029,
      "bord": 4030,
      "offices": 4031,
      "17th": 4032,
      "clothes": 4033,
      "IR": 4034,
      "Under": 4035,
      "##ken": 4036,
      "##mber": 4037,
      "police": 4038,
      "routes": 4039,
      "software": 4040,
      "projects": 4041,
      "assessment": 4042,
      "alternative": 4043,
      "unless": 4044,
      "writing": 4045,
      "##soft": 4046,
      "matters": 4047,
      "Starr": 4048,
      "greatest": 4049,
      "eventually": 4050,
      "Administr": 4051,
      "fol": 4052,
      "prepared": 4053,
      "Did": 4054,
      "career": 4055,
      "fest": 4056,
      "##mark": 4057,
      "cool": 4058,
      "##ancy": 4059,
      "processes": 4060,
      "limit": 4061,
      "doctor": 4062,
      "immediately": 4063,
      "Afric": 4064,
      "Cor": 4065,
      "Western": 4066,
      "gather": 4067,
      "##zen": 4068,
      "201": 4069,
      "sad": 4070,
      "note": 4071,
      "interior": 4072,
      "##centr": 4073,
      "determine": 4074,
      "Island": 4075,
      "uns": 4076,
      "cultural": 4077,
      "Aid": 4078,
      "##arant": 4079,
      "shall": 4080,
      "client": 4081,
      "strange": 4082,
      "highly": 4083,
      "Microsoft": 4084,
      "##adem": 4085,
      "powerful": 4086,
      "recognized": 4087,
      "hospital": 4088,
      "southern": 4089,
      "commit": 4090,
      "##ushed": 4091,
      "194": 4092,
      "1995": 4093,
      "cas": 4094,
      "anywhere": 4095,
      "Bra": 4096,
      "drop": 4097,
      "##tered": 4098,
      "importance": 4099,
      "Vis": 4100,
      "eth": 4101,
      "##vest": 4102,
      "##has": 4103,
      "kinds": 4104,
      "grantees": 4105,
      "pictures": 4106,
      "##urd": 4107,
      "##ieval": 4108,
      "nobody": 4109,
      "actual": 4110,
      "Hot": 4111,
      "##my": 4112,
      "fifty": 4113,
      "strategic": 4114,
      "Ye": 4115,
      "birth": 4116,
      "Vir": 4117,
      "##ech": 4118,
      "guys": 4119,
      "##sych": 4120,
      "Jud": 4121,
      "spring": 4122,
      "responsibility": 4123,
      "ver": 4124,
      "spread": 4125,
      "feed": 4126,
      "draft": 4127,
      "behavior": 4128,
      "residents": 4129,
      "learned": 4130,
      "##asts": 4131,
      "22": 4132,
      "Mark": 4133,
      "tit": 4134,
      "unp": 4135,
      "happens": 4136,
      "discussion": 4137,
      "challen": 4138,
      "Michael": 4139,
      "slight": 4140,
      "samp": 4141,
      "weight": 4142,
      "##ancing": 4143,
      "Art": 4144,
      "195": 4145,
      "showed": 4146,
      "nod": 4147,
      "rail": 4148,
      "##ront": 4149,
      "##SA": 4150,
      "goal": 4151,
      "novel": 4152,
      "grass": 4153,
      "employee": 4154,
      "normal": 4155,
      "Musl": 4156,
      "neighborhood": 4157,
      "##rel": 4158,
      "##raid": 4159,
      "Republican": 4160,
      "originally": 4161,
      "rac": 4162,
      "desert": 4163,
      "Another": 4164,
      "involve": 4165,
      "Dub": 4166,
      "fasc": 4167,
      "##ndish": 4168,
      "constant": 4169,
      "rise": 4170,
      "interp": 4171,
      "executives": 4172,
      "machine": 4173,
      "colon": 4174,
      "##iation": 4175,
      "ult": 4176,
      "unique": 4177,
      "capacity": 4178,
      "dinner": 4179,
      "Tour": 4180,
      "substant": 4181,
      "Valley": 4182,
      "June": 4183,
      "finance": 4184,
      "busy": 4185,
      "Los": 4186,
      "print": 4187,
      "surpl": 4188,
      "welf": 4189,
      "familiar": 4190,
      "welfare": 4191,
      "compliance": 4192,
      "Also": 4193,
      "advice": 4194,
      "##west": 4195,
      "concentr": 4196,
      "described": 4197,
      "Direct": 4198,
      "purs": 4199,
      "degree": 4200,
      "##zy": 4201,
      "environmental": 4202,
      "Budget": 4203,
      "sir": 4204,
      "##otic": 4205,
      "##olic": 4206,
      "##using": 4207,
      "plenty": 4208,
      "apply": 4209,
      "Cub": 4210,
      "Hind": 4211,
      "congress": 4212,
      "findings": 4213,
      "##lies": 4214,
      "##orses": 4215,
      "anti": 4216,
      "exercise": 4217,
      "##DA": 4218,
      "produced": 4219,
      "Phil": 4220,
      "appeal": 4221,
      "cards": 4222,
      "tro": 4223,
      "##road": 4224,
      "strug": 4225,
      "bag": 4226,
      "forces": 4227,
      "incent": 4228,
      "gotten": 4229,
      "concerns": 4230,
      "households": 4231,
      "pil": 4232,
      "guarant": 4233,
      "depict": 4234,
      "efficient": 4235,
      "Good": 4236,
      "Jane": 4237,
      "contact": 4238,
      "overall": 4239,
      "participants": 4240,
      "lunch": 4241,
      "castle": 4242,
      "conclus": 4243,
      "##lig": 4244,
      "##GD": 4245,
      "worst": 4246,
      "trial": 4247,
      "defic": 4248,
      "records": 4249,
      "Mont": 4250,
      "alt": 4251,
      "Thorn": 4252,
      "immigr": 4253,
      "pleasant": 4254,
      "implementation": 4255,
      "afraid": 4256,
      "screening": 4257,
      "ho": 4258,
      "Any": 4259,
      "reduced": 4260,
      "understanding": 4261,
      "burden": 4262,
      "profession": 4263,
      "##ipped": 4264,
      "relevant": 4265,
      "citizens": 4266,
      "Sat": 4267,
      "manufacturing": 4268,
      "stick": 4269,
      "veget": 4270,
      "roof": 4271,
      "obtain": 4272,
      "medieval": 4273,
      "Senate": 4274,
      "Angeles": 4275,
      "Ra": 4276,
      "tough": 4277,
      "appar": 4278,
      "fear": 4279,
      "##gg": 4280,
      "hadn": 4281,
      "##ifying": 4282,
      "pattern": 4283,
      "competition": 4284,
      "circum": 4285,
      "bird": 4286,
      "##dom": 4287,
      "director": 4288,
      "pollution": 4289,
      "##sec": 4290,
      "##ested": 4291,
      "determined": 4292,
      "energy": 4293,
      "Fe": 4294,
      "##eries": 4295,
      "##ste": 4296,
      "traffic": 4297,
      "monument": 4298,
      "factor": 4299,
      "players": 4300,
      "critic": 4301,
      "Royal": 4302,
      "##iro": 4303,
      "changing": 4304,
      "businesses": 4305,
      "historical": 4306,
      "nin": 4307,
      "##hic": 4308,
      "##ompl": 4309,
      "##place": 4310,
      "names": 4311,
      "od": 4312,
      "theory": 4313,
      "##ulate": 4314,
      "version": 4315,
      "Cavendish": 4316,
      "Vand": 4317,
      "lies": 4318,
      "topic": 4319,
      "##ortunately": 4320,
      "dut": 4321,
      "handle": 4322,
      "initial": 4323,
      "Mod": 4324,
      "Tra": 4325,
      "accompl": 4326,
      "helps": 4327,
      "student": 4328,
      "##apel": 4329,
      "drinking": 4330,
      "Dublin": 4331,
      "et": 4332,
      "##arp": 4333,
      "##ete": 4334,
      "produce": 4335,
      "advantage": 4336,
      "track": 4337,
      "situ": 4338,
      "effici": 4339,
      "arrived": 4340,
      "Dis": 4341,
      "##cious": 4342,
      "conflic": 4343,
      "Irish": 4344,
      "tiny": 4345,
      "##oned": 4346,
      "earn": 4347,
      "##idden": 4348,
      "tower": 4349,
      "legislation": 4350,
      "##ening": 4351,
      "treas": 4352,
      "younger": 4353,
      "Ken": 4354,
      "##inger": 4355,
      "minor": 4356,
      "bes": 4357,
      "##ading": 4358,
      "##ologies": 4359,
      "status": 4360,
      "golf": 4361,
      "##inary": 4362,
      "ang": 4363,
      "editor": 4364,
      "Goth": 4365,
      "speaking": 4366,
      "totally": 4367,
      "recommendations": 4368,
      "aspect": 4369,
      "twice": 4370,
      "finished": 4371,
      "member": 4372,
      "concept": 4373,
      "bare": 4374,
      "##mas": 4375,
      "##orters": 4376,
      "technical": 4377,
      "presented": 4378,
      "Over": 4379,
      "lab": 4380,
      "western": 4381,
      "##amic": 4382,
      "construct": 4383,
      "nor": 4384,
      "##rees": 4385,
      "units": 4386,
      "highest": 4387,
      "gain": 4388,
      "star": 4389,
      "speech": 4390,
      "hundreds": 4391,
      "observ": 4392,
      "##CR": 4393,
      "##DP": 4394,
      "##ini": 4395,
      "##ctions": 4396,
      "sevent": 4397,
      "skin": 4398,
      "spirit": 4399,
      "Mil": 4400,
      "##mosp": 4401,
      "##ortion": 4402,
      "Anal": 4403,
      "believes": 4404,
      "fighting": 4405,
      "acquisition": 4406,
      "dangerous": 4407,
      "mortality": 4408,
      "amazing": 4409,
      "papers": 4410,
      "##ulations": 4411,
      "lif": 4412,
      "McC": 4413,
      "shoot": 4414,
      "Fig": 4415,
      "theater": 4416,
      "##itness": 4417,
      "transfer": 4418,
      "walked": 4419,
      "##onom": 4420,
      "search": 4421,
      "##akers": 4422,
      "pool": 4423,
      "Mo": 4424,
      "tradition": 4425,
      "announ": 4426,
      "decide": 4427,
      "subs": 4428,
      "advoc": 4429,
      "election": 4430,
      "trib": 4431,
      "inform": 4432,
      "heat": 4433,
      "lie": 4434,
      "##can": 4435,
      "##aks": 4436,
      "painting": 4437,
      "schedule": 4438,
      "Jews": 4439,
      "Paul": 4440,
      "##gment": 4441,
      "##emey": 4442,
      "planned": 4443,
      "requirement": 4444,
      "baby": 4445,
      "County": 4446,
      "Ear": 4447,
      "horses": 4448,
      "log": 4449,
      "Santa": 4450,
      "chair": 4451,
      "compar": 4452,
      "leads": 4453,
      "Report": 4454,
      "window": 4455,
      "fairly": 4456,
      "journal": 4457,
      "merc": 4458,
      "abuse": 4459,
      "differences": 4460,
      "Arab": 4461,
      "Ib": 4462,
      "sor": 4463,
      "##alt": 4464,
      "boil": 4465,
      "skills": 4466,
      "facilities": 4467,
      "imagine": 4468,
      "Virgin": 4469,
      "otherwise": 4470,
      "refused": 4471,
      "##emeyer": 4472,
      "Out": 4473,
      "Tok": 4474,
      "##ession": 4475,
      "surprised": 4476,
      "psych": 4477,
      "##hi": 4478,
      "##inburgh": 4479,
      "forget": 4480,
      "High": 4481,
      "tom": 4482,
      "##ented": 4483,
      "##ension": 4484,
      "Vandemeyer": 4485,
      "amp": 4486,
      "jew": 4487,
      "##bit": 4488,
      "##omen": 4489,
      "depends": 4490,
      "administration": 4491,
      "Jamaica": 4492,
      "Rue": 4493,
      "##IC": 4494,
      "suffic": 4495,
      "leaving": 4496,
      "figures": 4497,
      "measures": 4498,
      "era": 4499,
      "san": 4500,
      "##time": 4501,
      "##eria": 4502,
      "##ales": 4503,
      "climb": 4504,
      "explain": 4505,
      "opportunities": 4506,
      "opposite": 4507,
      "Spe": 4508,
      "loved": 4509,
      "artists": 4510,
      "magazine": 4511,
      "Gothic": 4512,
      "Hill": 4513,
      "waste": 4514,
      "reviews": 4515,
      "Edinburgh": 4516,
      "burn": 4517,
      "gar": 4518,
      "atmosp": 4519,
      "AC": 4520,
      "Vict": 4521,
      "occup": 4522,
      "options": 4523,
      "leadership": 4524,
      "Democrats": 4525,
      "Association": 4526,
      "##gen": 4527,
      "##ico": 4528,
      "stated": 4529,
      "resorts": 4530,
      "loan": 4531,
      "Hen": 4532,
      "Where": 4533,
      "ton": 4534,
      "##ita": 4535,
      "##adel": 4536,
      "visited": 4537,
      "massive": 4538,
      "dedicated": 4539,
      "eld": 4540,
      "aftern": 4541,
      "conversation": 4542,
      "##look": 4543,
      "##anch": 4544,
      "reve": 4545,
      "##iminal": 4546,
      "Inc": 4547,
      "Medicare": 4548,
      "Ber": 4549,
      "##nel": 4550,
      "##wards": 4551,
      "##oln": 4552,
      "GDP": 4553,
      "vast": 4554,
      "##ancial": 4555,
      "##issance": 4556,
      "restored": 4557,
      "ille": 4558,
      "housing": 4559,
      "##ais": 4560,
      "accounts": 4561,
      "touch": 4562,
      "gate": 4563,
      "quant": 4564,
      "scr": 4565,
      "funded": 4566,
      "keeping": 4567,
      "weapons": 4568,
      "wel": 4569,
      "enem": 4570,
      "##incoln": 4571,
      "##enaissance": 4572,
      "conducted": 4573,
      "Lincoln": 4574,
      "bomb": 4575,
      "##arm": 4576,
      "consult": 4577,
      "founded": 4578,
      "calc": 4579,
      "radio": 4580,
      "##ette": 4581,
      "compon": 4582,
      "smiled": 4583,
      "flat": 4584,
      "survey": 4585,
      "Techn": 4586,
      "##stitute": 4587,
      "Bob": 4588,
      "herself": 4589,
      "##enses": 4590,
      "helping": 4591,
      "chem": 4592,
      "selling": 4593,
      "Apr": 4594,
      "Kn": 4595,
      "guidance": 4596,
      "impressive": 4597,
      "tree": 4598,
      "##BA": 4599,
      "marble": 4600,
      "FGD": 4601,
      "mere": 4602,
      "Who": 4603,
      "stret": 4604,
      "coverage": 4605,
      "die": 4606,
      "lines": 4607,
      "song": 4608,
      "##erly": 4609,
      "Sunday": 4610,
      "Aust": 4611,
      "Look": 4612,
      "Wall": 4613,
      "hills": 4614,
      "tim": 4615,
      "Inter": 4616,
      "buying": 4617,
      "firms": 4618,
      "match": 4619,
      "protection": 4620,
      "weekend": 4621,
      "Day": 4622,
      "jump": 4623,
      "carved": 4624,
      "##idential": 4625,
      "Sept": 4626,
      "##arian": 4627,
      "##pping": 4628,
      "distance": 4629,
      "entirely": 4630,
      "surrounding": 4631,
      "virt": 4632,
      "##tt": 4633,
      "##nam": 4634,
      "##chers": 4635,
      "faith": 4636,
      "##ida": 4637,
      "noticed": 4638,
      "alle": 4639,
      "users": 4640,
      "##action": 4641,
      "tests": 4642,
      "returned": 4643,
      "Bu": 4644,
      "##stances": 4645,
      "##chan": 4646,
      "supply": 4647,
      "defense": 4648,
      "profit": 4649,
      "March": 4650,
      "Execut": 4651,
      "Scott": 4652,
      "double": 4653,
      "primary": 4654,
      "Town": 4655,
      "relatively": 4656,
      "models": 4657,
      "Class": 4658,
      "organizational": 4659,
      "rulemaking": 4660,
      "eastern": 4661,
      "Buddh": 4662,
      "Cath": 4663,
      "length": 4664,
      "##erial": 4665,
      "guard": 4666,
      "developing": 4667,
      "responsibilities": 4668,
      "NO": 4669,
      "fill": 4670,
      "##ris": 4671,
      "##ham": 4672,
      "perman": 4673,
      "extent": 4674,
      "raise": 4675,
      "accepted": 4676,
      "##racy": 4677,
      "Mag": 4678,
      "##ois": 4679,
      "hasn": 4680,
      "owned": 4681,
      "football": 4682,
      "rough": 4683,
      "extend": 4684,
      "attend": 4685,
      "carri": 4686,
      "numerous": 4687,
      "##ught": 4688,
      "medic": 4689,
      "evaluation": 4690,
      "furn": 4691,
      "suppose": 4692,
      "confir": 4693,
      "Committee": 4694,
      "yard": 4695,
      "##bon": 4696,
      "##uous": 4697,
      "##owed": 4698,
      "##ounds": 4699,
      "Holly": 4700,
      "apartment": 4701,
      "maintain": 4702,
      "Madeira": 4703,
      "freed": 4704,
      "##equ": 4705,
      "##ES": 4706,
      "forms": 4707,
      "##ulous": 4708,
      "suc": 4709,
      "meat": 4710,
      "grown": 4711,
      "##ertain": 4712,
      "gradu": 4713,
      "April": 4714,
      "Je": 4715,
      "Tre": 4716,
      "decline": 4717,
      "Clear": 4718,
      "award": 4719,
      "IRS": 4720,
      "conclud": 4721,
      "network": 4722,
      "corporate": 4723,
      "hearing": 4724,
      "exchange": 4725,
      "text": 4726,
      "192": 4727,
      "##iazz": 4728,
      "reasonable": 4729,
      "Malays": 4730,
      "William": 4731,
      "Econom": 4732,
      "Rome": 4733,
      "shut": 4734,
      "worried": 4735,
      "realize": 4736,
      "broke": 4737,
      "Pre": 4738,
      "##hem": 4739,
      "manner": 4740,
      "managed": 4741,
      "Maybe": 4742,
      "dropped": 4743,
      "gro": 4744,
      "##ueen": 4745,
      "criminal": 4746,
      "1990": 4747,
      "##insky": 4748,
      "statues": 4749,
      "documents": 4750,
      "eleg": 4751,
      "Cast": 4752,
      "tools": 4753,
      "conference": 4754,
      "saf": 4755,
      "##ureau": 4756,
      "slowly": 4757,
      "24": 4758,
      "Stud": 4759,
      "approved": 4760,
      "glad": 4761,
      "girls": 4762,
      "Lond": 4763,
      "science": 4764,
      "markets": 4765,
      "windows": 4766,
      "addressed": 4767,
      "entertainment": 4768,
      "pra": 4769,
      "##gu": 4770,
      "##han": 4771,
      "##ishes": 4772,
      "scient": 4773,
      "asking": 4774,
      "##raw": 4775,
      "slaves": 4776,
      "selection": 4777,
      "enh": 4778,
      "compr": 4779,
      "governments": 4780,
      "vacation": 4781,
      "##ses": 4782,
      "online": 4783,
      "Monica": 4784,
      "Long": 4785,
      "cup": 4786,
      "##rehens": 4787,
      "##iture": 4788,
      "##ategy": 4789,
      "holding": 4790,
      "nodded": 4791,
      "##ificent": 4792,
      "scenar": 4793,
      "##cript": 4794,
      "tea": 4795,
      "fellow": 4796,
      "Carter": 4797,
      "Mond": 4798,
      "forth": 4799,
      "whom": 4800,
      "mechan": 4801,
      "vehic": 4802,
      "cuts": 4803,
      "negative": 4804,
      "challenge": 4805,
      "Jack": 4806,
      "iron": 4807,
      "193": 4808,
      "instance": 4809,
      "reductions": 4810,
      "runs": 4811,
      "accountability": 4812,
      "Hotel": 4813,
      "##stein": 4814,
      "Renaissance": 4815,
      "pointed": 4816,
      "##istrict": 4817,
      "moral": 4818,
      "steel": 4819,
      "Nobody": 4820,
      "London": 4821,
      "Renn": 4822,
      "saved": 4823,
      "elig": 4824,
      "attractions": 4825,
      "Ap": 4826,
      "Rom": 4827,
      "gent": 4828,
      "nurs": 4829,
      "##ford": 4830,
      "challenges": 4831,
      "bul": 4832,
      "courts": 4833,
      "leader": 4834,
      "Once": 4835,
      "cell": 4836,
      "inqu": 4837,
      "##amble": 4838,
      "Est": 4839,
      "IT": 4840,
      "##era": 4841,
      "attractive": 4842,
      "scene": 4843,
      "engineering": 4844,
      "spectac": 4845,
      "ED": 4846,
      "##aked": 4847,
      "facility": 4848,
      "##holders": 4849,
      "movement": 4850,
      "argument": 4851,
      "counsel": 4852,
      "##verty": 4853,
      "becoming": 4854,
      "reduction": 4855,
      "Prot": 4856,
      "damage": 4857,
      "stake": 4858,
      "neat": 4859,
      "recip": 4860,
      "telling": 4861,
      "message": 4862,
      "None": 4863,
      "##50": 4864,
      "smart": 4865,
      "2002": 4866,
      "details": 4867,
      "##atically": 4868,
      "somewhere": 4869,
      "effectively": 4870,
      "Mac": 4871,
      "smok": 4872,
      "driving": 4873,
      "Scot": 4874,
      "District": 4875,
      "##met": 4876,
      "##pective": 4877,
      "elimin": 4878,
      "consistent": 4879,
      "300": 4880,
      "Case": 4881,
      "Gard": 4882,
      "therefore": 4883,
      "Isl": 4884,
      "improved": 4885,
      "critics": 4886,
      "Figure": 4887,
      "Corp": 4888,
      "Water": 4889,
      "dry": 4890,
      "##ilit": 4891,
      "##apt": 4892,
      "##ishment": 4893,
      "owner": 4894,
      "interests": 4895,
      "emphas": 4896,
      "cam": 4897,
      "##ashed": 4898,
      "strategy": 4899,
      "attempt": 4900,
      "##ardship": 4901,
      "Center": 4902,
      "physical": 4903,
      "##ipe": 4904,
      "##rence": 4905,
      "lawn": 4906,
      "principles": 4907,
      "volunte": 4908,
      "afternoon": 4909,
      "boring": 4910,
      "outc": 4911,
      "finding": 4912,
      "Oct": 4913,
      "##king": 4914,
      "hunt": 4915,
      "Rennie": 4916,
      "lady": 4917,
      "##iza": 4918,
      "terra": 4919,
      "counter": 4920,
      "##what": 4921,
      "January": 4922,
      "Hollywood": 4923,
      "##ari": 4924,
      "##uman": 4925,
      "##igned": 4926,
      "explan": 4927,
      "odd": 4928,
      "Brad": 4929,
      "issued": 4930,
      "Holy": 4931,
      "illustr": 4932,
      "##itc": 4933,
      "libr": 4934,
      "##elve": 4935,
      "contain": 4936,
      "carp": 4937,
      "flowers": 4938,
      "basically": 4939,
      "Em": 4940,
      "Sur": 4941,
      "##eed": 4942,
      "##hab": 4943,
      "picked": 4944,
      "succeed": 4945,
      "Ira": 4946,
      "stage": 4947,
      "productivity": 4948,
      "explained": 4949,
      "Place": 4950,
      "surrounded": 4951,
      "rose": 4952,
      "##iel": 4953,
      "oblig": 4954,
      "proposal": 4955,
      "River": 4956,
      "alive": 4957,
      "##apter": 4958,
      "##ishing": 4959,
      "techniques": 4960,
      "subsid": 4961,
      "CE": 4962,
      "Ke": 4963,
      "Squ": 4964,
      "proceed": 4965,
      "ship": 4966,
      "placed": 4967,
      "bright": 4968,
      "Russian": 4969,
      "##tery": 4970,
      "resist": 4971,
      "speed": 4972,
      "bridge": 4973,
      "Alex": 4974,
      "Kar": 4975,
      "swimming": 4976,
      "##ville": 4977,
      "carried": 4978,
      "marriage": 4979,
      "Despite": 4980,
      "Cost": 4981,
      "dism": 4982,
      "encourage": 4983,
      "Victor": 4984,
      "discovered": 4985,
      "fan": 4986,
      "##aging": 4987,
      "overs": 4988,
      "hyp": 4989,
      "##oti": 4990,
      "pray": 4991,
      "Black": 4992,
      "replace": 4993,
      "lat": 4994,
      "##yo": 4995,
      "belong": 4996,
      "Howard": 4997,
      "suspect": 4998,
      "##cend": 4999,
      "likes": 5000,
      "bron": 5001,
      "Russia": 5002,
      "female": 5003,
      "flexibility": 5004,
      "reput": 5005,
      "pressure": 5006,
      "Table": 5007,
      "pet": 5008,
      "##orter": 5009,
      "Ev": 5010,
      "fly": 5011,
      "##off": 5012,
      "aband": 5013,
      "historic": 5014,
      "fixed": 5015,
      "Council": 5016,
      "Gold": 5017,
      "##bb": 5018,
      "audits": 5019,
      "tours": 5020,
      "illegal": 5021,
      "putting": 5022,
      "communities": 5023,
      "PM": 5024,
      "Sather": 5025,
      "cro": 5026,
      "##oved": 5027,
      "##nic": 5028,
      "##anks": 5029,
      "chur": 5030,
      "upset": 5031,
      "agreement": 5032,
      "focused": 5033,
      "##iazza": 5034,
      "Cyn": 5035,
      "##heast": 5036,
      "##orary": 5037,
      "somewhat": 5038,
      "decades": 5039,
      "provisions": 5040,
      "increases": 5041,
      "museums": 5042,
      "border": 5043,
      "Sever": 5044,
      "scale": 5045,
      "Financial": 5046,
      "Madrid": 5047,
      "##iders": 5048,
      "shook": 5049,
      "##owned": 5050,
      "direction": 5051,
      "Dole": 5052,
      "customers": 5053,
      "September": 5054,
      "##llo": 5055,
      "manage": 5056,
      "cafe": 5057,
      "snow": 5058,
      "susp": 5059,
      "ought": 5060,
      "##anged": 5061,
      "reviewed": 5062,
      "entered": 5063,
      "newspaper": 5064,
      "SCR": 5065,
      "mob": 5066,
      "task": 5067,
      "##iment": 5068,
      "spl": 5069,
      "fee": 5070,
      "Gall": 5071,
      "##rian": 5072,
      "boats": 5073,
      "Before": 5074,
      "Order": 5075,
      "Perhaps": 5076,
      "Middle": 5077,
      "Sub": 5078,
      "gonna": 5079,
      "Anse": 5080,
      "Nothing": 5081,
      "innov": 5082,
      "##eness": 5083,
      "consequ": 5084,
      "territ": 5085,
      "merch": 5086,
      "onto": 5087,
      "sem": 5088,
      "plus": 5089,
      "fired": 5090,
      "elements": 5091,
      "religion": 5092,
      "##ography": 5093,
      "##aled": 5094,
      "##oper": 5095,
      "##agan": 5096,
      "presence": 5097,
      "patient": 5098,
      "examples": 5099,
      "landscape": 5100,
      "video": 5101,
      "Executive": 5102,
      "80": 5103,
      "Kent": 5104,
      "tun": 5105,
      "stup": 5106,
      "conqu": 5107,
      "shape": 5108,
      "unlike": 5109,
      "centers": 5110,
      "appeared": 5111,
      "Men": 5112,
      "bath": 5113,
      "##cked": 5114,
      "##ero": 5115,
      "leather": 5116,
      "##agon": 5117,
      "roads": 5118,
      "CO": 5119,
      "Take": 5120,
      "fit": 5121,
      "2A": 5122,
      "Sam": 5123,
      "unable": 5124,
      "harm": 5125,
      "contributions": 5126,
      "balance": 5127,
      "DOD": 5128,
      "Cur": 5129,
      "##ilty": 5130,
      "realized": 5131,
      "manager": 5132,
      "eighty": 5133,
      "scand": 5134,
      "monitor": 5135,
      "defined": 5136,
      "Central": 5137,
      "detailed": 5138,
      "Mer": 5139,
      "hat": 5140,
      "sick": 5141,
      "sister": 5142,
      "thanks": 5143,
      "processing": 5144,
      "explore": 5145,
      "mile": 5146,
      "##ober": 5147,
      "friendly": 5148,
      "Four": 5149,
      "Str": 5150,
      "loans": 5151,
      "experienced": 5152,
      "advertising": 5153,
      "millions": 5154,
      "tap": 5155,
      "##heim": 5156,
      "##thia": 5157,
      "descript": 5158,
      "atmosphere": 5159,
      "October": 5160,
      "mad": 5161,
      "wearing": 5162,
      "adequ": 5163,
      "fees": 5164,
      "awful": 5165,
      "Christmas": 5166,
      "Corpor": 5167,
      "disag": 5168,
      "Chic": 5169,
      "Napole": 5170,
      "fascinating": 5171,
      "##IT": 5172,
      "chief": 5173,
      "##elines": 5174,
      "accident": 5175,
      "monaster": 5176,
      "Mail": 5177,
      "mouth": 5178,
      "##NT": 5179,
      "##enance": 5180,
      "artist": 5181,
      "supported": 5182,
      "mentioned": 5183,
      "Square": 5184,
      "Public": 5185,
      "thus": 5186,
      "plain": 5187,
      "proud": 5188,
      "happening": 5189,
      "computers": 5190,
      "missed": 5191,
      "Du": 5192,
      "cable": 5193,
      "##aker": 5194,
      "poverty": 5195,
      "wooden": 5196,
      "Chicago": 5197,
      "27": 5198,
      "##overy": 5199,
      "sharp": 5200,
      "university": 5201,
      "underst": 5202,
      "background": 5203,
      "letters": 5204,
      "sections": 5205,
      "debate": 5206,
      "Research": 5207,
      "bottom": 5208,
      "fraud": 5209,
      "churches": 5210,
      "owners": 5211,
      "inspect": 5212,
      "broken": 5213,
      "improvement": 5214,
      "Charles": 5215,
      "Cynthia": 5216,
      "##andom": 5217,
      "une": 5218,
      "strict": 5219,
      "teams": 5220,
      "pulled": 5221,
      "safety": 5222,
      "Us": 5223,
      "Wil": 5224,
      "tired": 5225,
      "##ye": 5226,
      "expend": 5227,
      "vari": 5228,
      "##umptions": 5229,
      "tal": 5230,
      "anybody": 5231,
      "splend": 5232,
      "brand": 5233,
      "Norm": 5234,
      "##owl": 5235,
      "webs": 5236,
      "guilty": 5237,
      "flo": 5238,
      "##well": 5239,
      "purposes": 5240,
      "magnificent": 5241,
      "sorry": 5242,
      "Gate": 5243,
      "belief": 5244,
      "phil": 5245,
      "forgot": 5246,
      "Like": 5247,
      "loud": 5248,
      "##rete": 5249,
      "contemp": 5250,
      "depos": 5251,
      "villages": 5252,
      "holid": 5253,
      "ice": 5254,
      "Rev": 5255,
      "Exp": 5256,
      "adopted": 5257,
      "symbol": 5258,
      "Scotland": 5259,
      "Bel": 5260,
      "Sw": 5261,
      "lic": 5262,
      "rat": 5263,
      "carefully": 5264,
      "Crit": 5265,
      "hy": 5266,
      "##ship": 5267,
      "seat": 5268,
      "limits": 5269,
      "industrial": 5270,
      "perfectly": 5271,
      "decorated": 5272,
      "sharing": 5273,
      "Project": 5274,
      "grounds": 5275,
      "boys": 5276,
      "circumstances": 5277,
      "Found": 5278,
      "bars": 5279,
      "fought": 5280,
      "thick": 5281,
      "content": 5282,
      "edge": 5283,
      "Byz": 5284,
      "cart": 5285,
      "courty": 5286,
      "silver": 5287,
      "male": 5288,
      "alloc": 5289,
      "amb": 5290,
      "occasion": 5291,
      "clothing": 5292,
      "interpret": 5293,
      "Hindu": 5294,
      "Ter": 5295,
      "dance": 5296,
      "##yl": 5297,
      "##aders": 5298,
      "##umes": 5299,
      "distinct": 5300,
      "extensive": 5301,
      "magic": 5302,
      "harbor": 5303,
      "waters": 5304,
      "copy": 5305,
      "materials": 5306,
      "Richard": 5307,
      "Analysis": 5308,
      "##lers": 5309,
      "##ER": 5310,
      "conven": 5311,
      "maxim": 5312,
      "bigger": 5313,
      "Atl": 5314,
      "taste": 5315,
      "Byzant": 5316,
      "Hist": 5317,
      "jour": 5318,
      "sides": 5319,
      "##terday": 5320,
      "recyc": 5321,
      "Review": 5322,
      "audience": 5323,
      "Several": 5324,
      "der": 5325,
      "1994": 5326,
      "##insula": 5327,
      "technologies": 5328,
      "honor": 5329,
      "divers": 5330,
      "buried": 5331,
      "Sea": 5332,
      "delight": 5333,
      "penal": 5334,
      "initiatives": 5335,
      "elegant": 5336,
      "spectacular": 5337,
      "bound": 5338,
      "jun": 5339,
      "##lls": 5340,
      "reject": 5341,
      "##ria": 5342,
      "consumption": 5343,
      "Road": 5344,
      "columns": 5345,
      "aliens": 5346,
      "Monday": 5347,
      "cere": 5348,
      "offering": 5349,
      "hung": 5350,
      "witness": 5351,
      "##ora": 5352,
      "decade": 5353,
      "employment": 5354,
      "##eder": 5355,
      "##lets": 5356,
      "Three": 5357,
      "empire": 5358,
      "Bus": 5359,
      "##rent": 5360,
      "##uts": 5361,
      "enforce": 5362,
      "incorpor": 5363,
      "absor": 5364,
      "apart": 5365,
      "recognize": 5366,
      "sexual": 5367,
      "honest": 5368,
      "##ding": 5369,
      "storm": 5370,
      "##iously": 5371,
      "emot": 5372,
      "typically": 5373,
      "##II": 5374,
      "##oto": 5375,
      "empty": 5376,
      "Union": 5377,
      "image": 5378,
      "implemented": 5379,
      "ideal": 5380,
      "allows": 5381,
      "strategies": 5382,
      "teleph": 5383,
      "closer": 5384,
      "70": 5385,
      "##ingly": 5386,
      "contained": 5387,
      "##ords": 5388,
      "portion": 5389,
      "guns": 5390,
      "Last": 5391,
      "active": 5392,
      "facts": 5393,
      "privacy": 5394,
      "Skies": 5395,
      "suddenly": 5396,
      "Bor": 5397,
      "Ky": 5398,
      "##aud": 5399,
      "preamble": 5400,
      "recon": 5401,
      "meetings": 5402,
      "Ibiza": 5403,
      "Met": 5404,
      "##itation": 5405,
      "delic": 5406,
      "##onds": 5407,
      "approxim": 5408,
      "application": 5409,
      "comfortable": 5410,
      "Napoleon": 5411,
      "SO": 5412,
      "eating": 5413,
      "advent": 5414,
      "unus": 5415,
      "##oys": 5416,
      "Egyptian": 5417,
      "package": 5418,
      "primarily": 5419,
      "Mexico": 5420,
      "Bau": 5421,
      "##aling": 5422,
      "##itan": 5423,
      "fool": 5424,
      "hardly": 5425,
      "advance": 5426,
      "formal": 5427,
      "sculpture": 5428,
      "electricity": 5429,
      "##iber": 5430,
      "##ellect": 5431,
      "reality": 5432,
      "appreciate": 5433,
      "TH": 5434,
      "lux": 5435,
      "##pie": 5436,
      "System": 5437,
      "conservative": 5438,
      "Lewinsky": 5439,
      "Vren": 5440,
      "bust": 5441,
      "univers": 5442,
      "covers": 5443,
      "discl": 5444,
      "horrible": 5445,
      "Palace": 5446,
      "calm": 5447,
      "slightly": 5448,
      "reputation": 5449,
      "Vrenna": 5450,
      "##acts": 5451,
      "##rehensive": 5452,
      "##itals": 5453,
      "##isk": 5454,
      "##icial": 5455,
      "##cean": 5456,
      "neither": 5457,
      "plays": 5458,
      "Perform": 5459,
      "connection": 5460,
      "##rig": 5461,
      "##aka": 5462,
      "assumptions": 5463,
      "Frid": 5464,
      "instru": 5465,
      "congressional": 5466,
      "Kentuck": 5467,
      "Hel": 5468,
      "conver": 5469,
      "applied": 5470,
      "trading": 5471,
      "permanent": 5472,
      "library": 5473,
      "hire": 5474,
      "mir": 5475,
      "##right": 5476,
      "##ateau": 5477,
      "leaves": 5478,
      "functions": 5479,
      "collections": 5480,
      "Work": 5481,
      "##ager": 5482,
      "appoint": 5483,
      "assume": 5484,
      "hole": 5485,
      "##ocracy": 5486,
      "truly": 5487,
      "thank": 5488,
      "operating": 5489,
      "##cing": 5490,
      "learning": 5491,
      "urban": 5492,
      "experts": 5493,
      "sufficient": 5494,
      "Tom": 5495,
      "ven": 5496,
      "##uable": 5497,
      "##urb": 5498,
      "##imp": 5499,
      "##illy": 5500,
      "##ewardship": 5501,
      "delivered": 5502,
      "Smith": 5503,
      "Haw": 5504,
      "convent": 5505,
      "Though": 5506,
      "Health": 5507,
      "Att": 5508,
      "worksh": 5509,
      "option": 5510,
      "reliability": 5511,
      "Catholic": 5512,
      "Sum": 5513,
      "egg": 5514,
      "gamb": 5515,
      "##oe": 5516,
      "Step": 5517,
      "shel": 5518,
      "criteria": 5519,
      "Empire": 5520,
      "##greg": 5521,
      "committed": 5522,
      "##azar": 5523,
      "devoted": 5524,
      "Lawrence": 5525,
      "School": 5526,
      "Have": 5527,
      "symp": 5528,
      "calling": 5529,
      "percentage": 5530,
      "##ellig": 5531,
      "Britain": 5532,
      "soldiers": 5533,
      "motiv": 5534,
      "teacher": 5535,
      "notes": 5536,
      "feature": 5537,
      "vision": 5538,
      "valid": 5539,
      "yesterday": 5540,
      "displays": 5541,
      "freedom": 5542,
      "Carol": 5543,
      "holds": 5544,
      "beauty": 5545,
      "solution": 5546,
      "drew": 5547,
      "##ulatory": 5548,
      "surf": 5549,
      "negoti": 5550,
      "released": 5551,
      "superv": 5552,
      "26": 5553,
      "90": 5554,
      "##ultan": 5555,
      "visiting": 5556,
      "possibly": 5557,
      "15th": 5558,
      "purchase": 5559,
      "accurate": 5560,
      "cats": 5561,
      "everywhere": 5562,
      "confidence": 5563,
      "13th": 5564,
      "Cam": 5565,
      "Net": 5566,
      "vary": 5567,
      "cliff": 5568,
      "##ixon": 5569,
      "frequently": 5570,
      "join": 5571,
      "alien": 5572,
      "dramatic": 5573,
      "##uration": 5574,
      "stars": 5575,
      "##aine": 5576,
      "express": 5577,
      "discip": 5578,
      "Mos": 5579,
      "##cher": 5580,
      "##irts": 5581,
      "##riend": 5582,
      "chose": 5583,
      "fewer": 5584,
      "Jones": 5585,
      "protected": 5586,
      "regardless": 5587,
      "Finally": 5588,
      "Administration": 5589,
      "duty": 5590,
      "31": 5591,
      "##orks": 5592,
      "outl": 5593,
      "organized": 5594,
      "phase": 5595,
      "Color": 5596,
      "selected": 5597,
      "Accounting": 5598,
      "Supp": 5599,
      "Sov": 5600,
      "##entially": 5601,
      "shad": 5602,
      "outd": 5603,
      "arms": 5604,
      "fourth": 5605,
      "classical": 5606,
      "golden": 5607,
      "outcomes": 5608,
      "lob": 5609,
      "##za": 5610,
      "produc": 5611,
      "Columb": 5612,
      "baseball": 5613,
      "gentle": 5614,
      "##itative": 5615,
      "##arts": 5616,
      "dogs": 5617,
      "##IS": 5618,
      "##gend": 5619,
      "##ogue": 5620,
      "cris": 5621,
      "Franklin": 5622,
      "fab": 5623,
      "wing": 5624,
      "##how": 5625,
      "sole": 5626,
      "clin": 5627,
      "dise": 5628,
      "scared": 5629,
      "crimes": 5630,
      "commission": 5631,
      "bask": 5632,
      "replaced": 5633,
      "essential": 5634,
      "Peter": 5635,
      "tons": 5636,
      "compens": 5637,
      "smell": 5638,
      "showing": 5639,
      "Supreme": 5640,
      "Bradley": 5641,
      "Bal": 5642,
      "intellect": 5643,
      "submitted": 5644,
      "incentives": 5645,
      "Gal": 5646,
      "##aters": 5647,
      "remind": 5648,
      "##ugged": 5649,
      "crazy": 5650,
      "Satur": 5651,
      "##hal": 5652,
      "##outs": 5653,
      "agric": 5654,
      "hero": 5655,
      "committee": 5656,
      "facade": 5657,
      "Among": 5658,
      "specifically": 5659,
      "apparently": 5660,
      "Henry": 5661,
      "Ins": 5662,
      "Inst": 5663,
      "Technology": 5664,
      "eligible": 5665,
      "agricult": 5666,
      "33": 5667,
      "Bas": 5668,
      "gift": 5669,
      "pill": 5670,
      "##raft": 5671,
      "##ifications": 5672,
      "effectiveness": 5673,
      "continues": 5674,
      "surprise": 5675,
      "elderly": 5676,
      "23": 5677,
      "twelve": 5678,
      "achieved": 5679,
      "Iraq": 5680,
      "approximately": 5681,
      "Near": 5682,
      "aim": 5683,
      "pages": 5684,
      "tent": 5685,
      "##arc": 5686,
      "##utch": 5687,
      "tested": 5688,
      "Beach": 5689,
      "Jim": 5690,
      "SEC": 5691,
      "##orce": 5692,
      "glob": 5693,
      "amounts": 5694,
      "significantly": 5695,
      "scenes": 5696,
      "III": 5697,
      "ordered": 5698,
      "##ait": 5699,
      "##pm": 5700,
      "##zed": 5701,
      "stuck": 5702,
      "schol": 5703,
      "appears": 5704,
      "schedul": 5705,
      "latest": 5706,
      "##ivals": 5707,
      "coal": 5708,
      "##icked": 5709,
      "approval": 5710,
      "barg": 5711,
      "Poland": 5712,
      "scandal": 5713,
      "##ene": 5714,
      "poison": 5715,
      "Unf": 5716,
      "readers": 5717,
      "controvers": 5718,
      "concert": 5719,
      "improvements": 5720,
      "##orough": 5721,
      "forest": 5722,
      "aside": 5723,
      "grants": 5724,
      "signs": 5725,
      "expectations": 5726,
      "creating": 5727,
      "victims": 5728,
      "lucky": 5729,
      "litig": 5730,
      "troops": 5731,
      "Bet": 5732,
      "Es": 5733,
      "Fo": 5734,
      "##BC": 5735,
      "##usion": 5736,
      "chapel": 5737,
      "revol": 5738,
      "temper": 5739,
      "previously": 5740,
      "Florida": 5741,
      "Nixon": 5742,
      "Viet": 5743,
      "##rol": 5744,
      "lift": 5745,
      "diss": 5746,
      "replied": 5747,
      "throw": 5748,
      "tells": 5749,
      "describes": 5750,
      "turning": 5751,
      "Lar": 5752,
      "command": 5753,
      "possibility": 5754,
      "Secret": 5755,
      "typical": 5756,
      "fifteen": 5757,
      "satisf": 5758,
      "Kenned": 5759,
      "cried": 5760,
      "##iy": 5761,
      "##kish": 5762,
      "##IA": 5763,
      "##rep": 5764,
      "becomes": 5765,
      "subsequ": 5766,
      "statewide": 5767,
      "rebu": 5768,
      "Book": 5769,
      "jail": 5770,
      "nom": 5771,
      "brill": 5772,
      "##endix": 5773,
      "shrine": 5774,
      "Virginia": 5775,
      "jewel": 5776,
      "Lat": 5777,
      "Whitting": 5778,
      "journey": 5779,
      "##ij": 5780,
      "ends": 5781,
      "Adv": 5782,
      "allowances": 5783,
      "Saturday": 5784,
      "cab": 5785,
      "##aven": 5786,
      "##urse": 5787,
      "implic": 5788,
      "expression": 5789,
      "coord": 5790,
      "Child": 5791,
      "Alf": 5792,
      "stream": 5793,
      "Auditors": 5794,
      "Gi": 5795,
      "PC": 5796,
      "ble": 5797,
      "##omas": 5798,
      "##asty": 5799,
      "Albert": 5800,
      "careful": 5801,
      "cutting": 5802,
      "ignored": 5803,
      "chemical": 5804,
      "courtyard": 5805,
      "##illa": 5806,
      "artif": 5807,
      "Dece": 5808,
      "candidates": 5809,
      "##ola": 5810,
      "##antly": 5811,
      "##anges": 5812,
      "trail": 5813,
      "helpful": 5814,
      "arts": 5815,
      "##rofit": 5816,
      "angry": 5817,
      "Whittington": 5818,
      "##water": 5819,
      "complic": 5820,
      "teen": 5821,
      "doctors": 5822,
      "hide": 5823,
      "##imately": 5824,
      "relief": 5825,
      "reducing": 5826,
      "upper": 5827,
      "sentence": 5828,
      "fields": 5829,
      "guidelines": 5830,
      "transportation": 5831,
      "Rel": 5832,
      "forever": 5833,
      "##isted": 5834,
      "##ffect": 5835,
      "surprising": 5836,
      "customer": 5837,
      "tickets": 5838,
      "penalty": 5839,
      "December": 5840,
      "Such": 5841,
      "dad": 5842,
      "##agger": 5843,
      "##actions": 5844,
      "bull": 5845,
      "peninsula": 5846,
      "medicine": 5847,
      "Further": 5848,
      "row": 5849,
      "##bac": 5850,
      "suspic": 5851,
      "FDA": 5852,
      "##inent": 5853,
      "##ato": 5854,
      "##astern": 5855,
      "##emor": 5856,
      "greatly": 5857,
      "crafts": 5858,
      "bod": 5859,
      "sale": 5860,
      "comprehensive": 5861,
      "studied": 5862,
      "cheaper": 5863,
      "opening": 5864,
      "treated": 5865,
      "salt": 5866,
      "obviously": 5867,
      "title": 5868,
      "Av": 5869,
      "Pers": 5870,
      "bout": 5871,
      "crop": 5872,
      "##rors": 5873,
      "##pay": 5874,
      "##ona": 5875,
      "##stairs": 5876,
      "1993": 5877,
      "parks": 5878,
      "mosque": 5879,
      "assumed": 5880,
      "Tokyo": 5881,
      "gay": 5882,
      "laid": 5883,
      "##osen": 5884,
      "spok": 5885,
      "accomp": 5886,
      "recommended": 5887,
      "Treas": 5888,
      "Corporation": 5889,
      "spons": 5890,
      "supporting": 5891,
      "punishment": 5892,
      "Colorado": 5893,
      "dig": 5894,
      "dating": 5895,
      "hik": 5896,
      "doors": 5897,
      "detect": 5898,
      "keeps": 5899,
      "##ennis": 5900,
      "14th": 5901,
      "efficiency": 5902,
      "Friday": 5903,
      "bunch": 5904,
      "fant": 5905,
      "##amber": 5906,
      "Wood": 5907,
      "##ext": 5908,
      "##rant": 5909,
      "##eping": 5910,
      "expressed": 5911,
      "represented": 5912,
      "Germany": 5913,
      "mistake": 5914,
      "splendid": 5915,
      "Ott": 5916,
      "Tri": 5917,
      "hidden": 5918,
      "##ota": 5919,
      "excess": 5920,
      "##ema": 5921,
      "assert": 5922,
      "turns": 5923,
      "exclus": 5924,
      "corrupt": 5925,
      "rapid": 5926,
      "Call": 5927,
      "Def": 5928,
      "Fort": 5929,
      "Pen": 5930,
      "##front": 5931,
      "intellig": 5932,
      "##icks": 5933,
      "Scottish": 5934,
      "Queen": 5935,
      "resol": 5936,
      "engage": 5937,
      "communication": 5938,
      "contrast": 5939,
      "oversight": 5940,
      "understood": 5941,
      "Int": 5942,
      "hated": 5943,
      "stared": 5944,
      "##imony": 5945,
      "shore": 5946,
      "volcan": 5947,
      "argue": 5948,
      "avoided": 5949,
      "weapon": 5950,
      "Im": 5951,
      "Kir": 5952,
      "Mur": 5953,
      "losing": 5954,
      "##ingu": 5955,
      "dozen": 5956,
      "positions": 5957,
      "attraction": 5958,
      "falling": 5959,
      "Regulatory": 5960,
      "Turkish": 5961,
      "##yram": 5962,
      "random": 5963,
      "##gent": 5964,
      "regional": 5965,
      "largely": 5966,
      "definition": 5967,
      "banks": 5968,
      "conflict": 5969,
      "territory": 5970,
      "cig": 5971,
      "##bour": 5972,
      "smoke": 5973,
      "academ": 5974,
      "Johnson": 5975,
      "failure": 5976,
      "occurred": 5977,
      "joined": 5978,
      "ruins": 5979,
      "ug": 5980,
      "Init": 5981,
      "blade": 5982,
      "signed": 5983,
      "severe": 5984,
      "trend": 5985,
      "suggests": 5986,
      "participate": 5987,
      "substantial": 5988,
      "philos": 5989,
      "##wan": 5990,
      "##amew": 5991,
      "Still": 5992,
      "##ocks": 5993,
      "Arch": 5994,
      "surpluses": 5995,
      "aspects": 5996,
      "mercury": 5997,
      "Bauer": 5998,
      "rum": 5999,
      "##life": 6000,
      "##book": 6001,
      "##icy": 6002,
      "bear": 6003,
      "##abilities": 6004,
      "providers": 6005,
      "valuable": 6006,
      "ceiling": 6007,
      "arrange": 6008,
      "##going": 6009,
      "##while": 6010,
      "dust": 6011,
      "fat": 6012,
      "giant": 6013,
      "laug": 6014,
      "van": 6015,
      "##bles": 6016,
      "Star": 6017,
      "##standing": 6018,
      "collected": 6019,
      "animal": 6020,
      "frequent": 6021,
      "candidate": 6022,
      "escape": 6023,
      "native": 6024,
      "thorough": 6025,
      "##ushing": 6026,
      "remaining": 6027,
      "silent": 6028,
      "observed": 6029,
      "constructed": 6030,
      "stupid": 6031,
      "Ill": 6032,
      "Saving": 6033,
      "##box": 6034,
      "##NN": 6035,
      "shoes": 6036,
      "admitted": 6037,
      "memory": 6038,
      "sensitive": 6039,
      "institution": 6040,
      "Daniel": 6041,
      "##FA": 6042,
      "serves": 6043,
      "##ugues": 6044,
      "thoughts": 6045,
      "harder": 6046,
      "marked": 6047,
      "mainly": 6048,
      "wealthy": 6049,
      "Hunt": 6050,
      "fans": 6051,
      "##rane": 6052,
      "sport": 6053,
      "heads": 6054,
      "destination": 6055,
      "Journal": 6056,
      "##bes": 6057,
      "chest": 6058,
      "orders": 6059,
      "Piazza": 6060,
      "dream": 6061,
      "stations": 6062,
      "##umber": 6063,
      "##aken": 6064,
      "##encing": 6065,
      "ridic": 6066,
      "peaceful": 6067,
      "Performance": 6068,
      "Bon": 6069,
      "lakes": 6070,
      "##rad": 6071,
      "##OP": 6072,
      "##oulev": 6073,
      "flood": 6074,
      "##arsh": 6075,
      "Johnny": 6076,
      "Cat": 6077,
      "Ire": 6078,
      "maintenance": 6079,
      "folks": 6080,
      "crisis": 6081,
      "28": 6082,
      "pock": 6083,
      "##kl": 6084,
      "forty": 6085,
      "structures": 6086,
      "voters": 6087,
      "literature": 6088,
      "Feb": 6089,
      "Ireland": 6090,
      "Nile": 6091,
      "dyn": 6092,
      "riding": 6093,
      "##tion": 6094,
      "##aret": 6095,
      "poet": 6096,
      "invent": 6097,
      "feels": 6098,
      "Indians": 6099,
      "drawn": 6100,
      "competitive": 6101,
      "necessarily": 6102,
      "SO2": 6103,
      "rom": 6104,
      "##IN": 6105,
      "##isms": 6106,
      "##sey": 6107,
      "prove": 6108,
      "breath": 6109,
      "35": 6110,
      "Pu": 6111,
      "Pass": 6112,
      "##zone": 6113,
      "orient": 6114,
      "chann": 6115,
      "upd": 6116,
      "Thomas": 6117,
      "context": 6118,
      "raising": 6119,
      "##amework": 6120,
      "Sun": 6121,
      "##ias": 6122,
      "stroll": 6123,
      "politicians": 6124,
      "liberal": 6125,
      "tomorrow": 6126,
      "basket": 6127,
      "Bork": 6128,
      "Green": 6129,
      "Kos": 6130,
      "##eal": 6131,
      "##point": 6132,
      "##iform": 6133,
      "finish": 6134,
      "visits": 6135,
      "Asian": 6136,
      "Someone": 6137,
      "projected": 6138,
      "artifacts": 6139,
      "Bur": 6140,
      "Bro": 6141,
      "##under": 6142,
      "brings": 6143,
      "##ommod": 6144,
      "handed": 6145,
      "indeed": 6146,
      "fortress": 6147,
      "pilgr": 6148,
      "nursing": 6149,
      "Cow": 6150,
      "Ret": 6151,
      "Wind": 6152,
      "caves": 6153,
      "taught": 6154,
      "ham": 6155,
      "overlook": 6156,
      "terror": 6157,
      "voting": 6158,
      "distribution": 6159,
      "tight": 6160,
      "attrib": 6161,
      "player": 6162,
      "settlement": 6163,
      "survive": 6164,
      "minimum": 6165,
      "Via": 6166,
      "wed": 6167,
      "##inations": 6168,
      "Reform": 6169,
      "brain": 6170,
      "Something": 6171,
      "tonight": 6172,
      "Derry": 6173,
      "dates": 6174,
      "fro": 6175,
      "##arn": 6176,
      "##aming": 6177,
      "##agers": 6178,
      "preserved": 6179,
      "facilit": 6180,
      "occas": 6181,
      "intellectual": 6182,
      "Os": 6183,
      "##omed": 6184,
      "myst": 6185,
      "finest": 6186,
      "breed": 6187,
      "Centre": 6188,
      "seeking": 6189,
      "admit": 6190,
      "Foundation": 6191,
      "##uguese": 6192,
      "Get": 6193,
      "##vy": 6194,
      "deem": 6195,
      "Portuguese": 6196,
      "administrative": 6197,
      "examined": 6198,
      "exhibits": 6199,
      "Romans": 6200,
      "GP": 6201,
      "##inter": 6202,
      "##icing": 6203,
      "suit": 6204,
      "residential": 6205,
      "incred": 6206,
      "cru": 6207,
      "##uality": 6208,
      "investments": 6209,
      "auditor": 6210,
      "films": 6211,
      "prepare": 6212,
      "combination": 6213,
      "decrease": 6214,
      "2010": 6215,
      "barely": 6216,
      "vul": 6217,
      "##otes": 6218,
      "##stra": 6219,
      "exceed": 6220,
      "improper": 6221,
      "##attered": 6222,
      "Maryland": 6223,
      "repeated": 6224,
      "##ranean": 6225,
      "Hers": 6226,
      "Natal": 6227,
      "Tit": 6228,
      "usual": 6229,
      "discr": 6230,
      "202": 6231,
      "celebrated": 6232,
      "sweet": 6233,
      "carrying": 6234,
      "Bank": 6235,
      "Kath": 6236,
      "cave": 6237,
      "code": 6238,
      "##rough": 6239,
      "##aly": 6240,
      "prosec": 6241,
      "writer": 6242,
      "seriously": 6243,
      "Anton": 6244,
      "Cuba": 6245,
      "##ww": 6246,
      "claimed": 6247,
      "principle": 6248,
      "Kennedy": 6249,
      "Dec": 6250,
      "Up": 6251,
      "via": 6252,
      "##12": 6253,
      "##oration": 6254,
      "##stance": 6255,
      "reference": 6256,
      "##known": 6257,
      "Big": 6258,
      "##edy": 6259,
      "constitution": 6260,
      "resear": 6261,
      "quit": 6262,
      "##ubs": 6263,
      "Asia": 6264,
      "faced": 6265,
      "Tower": 6266,
      "bills": 6267,
      "hom": 6268,
      "lately": 6269,
      "##een": 6270,
      "##ints": 6271,
      "violent": 6272,
      "##ulfur": 6273,
      "CEO": 6274,
      "##works": 6275,
      "shif": 6276,
      "accommod": 6277,
      "advis": 6278,
      "Rem": 6279,
      "Section": 6280,
      "stable": 6281,
      "web": 6282,
      "organ": 6283,
      "##ubb": 6284,
      "##bell": 6285,
      "newspapers": 6286,
      "telephone": 6287,
      "Mah": 6288,
      "##uan": 6289,
      "chain": 6290,
      "elsewhere": 6291,
      "Does": 6292,
      "measured": 6293,
      "please": 6294,
      "articles": 6295,
      "Malaysia": 6296,
      "Carolina": 6297,
      "Soviet": 6298,
      "gross": 6299,
      "##ura": 6300,
      "accord": 6301,
      "flower": 6302,
      "writ": 6303,
      "elections": 6304,
      "steep": 6305,
      "expanded": 6306,
      "categories": 6307,
      "rarely": 6308,
      "commitment": 6309,
      "Muslim": 6310,
      "intent": 6311,
      "colors": 6312,
      "investors": 6313,
      "driven": 6314,
      "begins": 6315,
      "depending": 6316,
      "restrictions": 6317,
      "disappoint": 6318,
      "furniture": 6319,
      "wore": 6320,
      "attitude": 6321,
      "1992": 6322,
      "emperor": 6323,
      "exciting": 6324,
      "archae": 6325,
      "solid": 6326,
      "pleasure": 6327,
      "listening": 6328,
      "##board": 6329,
      "abandoned": 6330,
      "unusual": 6331,
      "Treasury": 6332,
      "Fam": 6333,
      "##UD": 6334,
      "##ownt": 6335,
      "##estone": 6336,
      "##oster": 6337,
      "Invest": 6338,
      "shoulder": 6339,
      "monuments": 6340,
      "entry": 6341,
      "##loyment": 6342,
      "Palest": 6343,
      "welcome": 6344,
      "Instead": 6345,
      "##gers": 6346,
      "##ja": 6347,
      "serving": 6348,
      "subt": 6349,
      "Indust": 6350,
      "Without": 6351,
      "normally": 6352,
      "sample": 6353,
      "Cazar": 6354,
      "Kore": 6355,
      "Roc": 6356,
      "##tained": 6357,
      "##EM": 6358,
      "##orted": 6359,
      "enth": 6360,
      "analys": 6361,
      "involving": 6362,
      "lovely": 6363,
      "characters": 6364,
      "memor": 6365,
      "29": 6366,
      "Land": 6367,
      "scre": 6368,
      "revolution": 6369,
      "successfully": 6370,
      "listed": 6371,
      "Particip": 6372,
      "reliable": 6373,
      "remarkable": 6374,
      "##bors": 6375,
      "##AC": 6376,
      "input": 6377,
      "whis": 6378,
      "outs": 6379,
      "worker": 6380,
      "exposure": 6381,
      "expenses": 6382,
      "desk": 6383,
      "classes": 6384,
      "excited": 6385,
      "Everything": 6386,
      "Finn": 6387,
      "increasingly": 6388,
      "Sometimes": 6389,
      "Yeah": 6390,
      "Sing": 6391,
      "##ao": 6392,
      "##uis": 6393,
      "##anta": 6394,
      "pride": 6395,
      "clo": 6396,
      "tourism": 6397,
      "promote": 6398,
      "presidential": 6399,
      "teaching": 6400,
      "75": 6401,
      "Lo": 6402,
      "Rock": 6403,
      "www": 6404,
      "##iance": 6405,
      "proved": 6406,
      "##ensity": 6407,
      "strength": 6408,
      "choices": 6409,
      "International": 6410,
      "Age": 6411,
      "Tel": 6412,
      "sets": 6413,
      "##liament": 6414,
      "improving": 6415,
      "facing": 6416,
      "Venet": 6417,
      "Economic": 6418,
      "fuel": 6419,
      "##uze": 6420,
      "weird": 6421,
      "partners": 6422,
      "victory": 6423,
      "earthqu": 6424,
      "birds": 6425,
      "Er": 6426,
      "##the": 6427,
      "##fast": 6428,
      "##ano": 6429,
      "stewardship": 6430,
      "fruit": 6431,
      "amend": 6432,
      "##amps": 6433,
      "writes": 6434,
      "approaches": 6435,
      "faces": 6436,
      "remembered": 6437,
      "settled": 6438,
      "##ographic": 6439,
      "merely": 6440,
      "pure": 6441,
      "##gs": 6442,
      "sust": 6443,
      "shared": 6444,
      "outcome": 6445,
      "output": 6446,
      "scary": 6447,
      "##ruary": 6448,
      "gallery": 6449,
      "latter": 6450,
      "reward": 6451,
      "chateau": 6452,
      "resource": 6453,
      "unemp": 6454,
      "##ensus": 6455,
      "##ternal": 6456,
      "affair": 6457,
      "February": 6458,
      "Natalia": 6459,
      "Sil": 6460,
      "Tues": 6461,
      "element": 6462,
      "##gl": 6463,
      "##erning": 6464,
      "##arther": 6465,
      "assass": 6466,
      "representatives": 6467,
      "##istered": 6468,
      "##annon": 6469,
      "McCain": 6470,
      "Fund": 6471,
      "##TA": 6472,
      "hey": 6473,
      "##ulating": 6474,
      "framework": 6475,
      "worship": 6476,
      "residence": 6477,
      "imperial": 6478,
      "publication": 6479,
      "metal": 6480,
      "creation": 6481,
      "begun": 6482,
      "applicable": 6483,
      "accuracy": 6484,
      "category": 6485,
      "sacrif": 6486,
      "Kyoto": 6487,
      "Little": 6488,
      "stress": 6489,
      "uniform": 6490,
      "interim": 6491,
      "Reagan": 6492,
      "rocks": 6493,
      "accomplish": 6494,
      "ACI": 6495,
      "disagree": 6496,
      "Critics": 6497,
      "ring": 6498,
      "##pan": 6499,
      "knowing": 6500,
      "##ecess": 6501,
      "20th": 6502,
      "winning": 6503,
      "uncertain": 6504,
      "requests": 6505,
      "Register": 6506,
      "sculptures": 6507,
      "Mediter": 6508,
      "Buddhist": 6509,
      "Business": 6510,
      "bay": 6511,
      "boss": 6512,
      "##ruction": 6513,
      "##oral": 6514,
      "overse": 6515,
      "foundation": 6516,
      "investigation": 6517,
      "gods": 6518,
      "Civil": 6519,
      "Equ": 6520,
      "inner": 6521,
      "##essed": 6522,
      "chronic": 6523,
      "enorm": 6524,
      "Institute": 6525,
      "testimony": 6526,
      "Musee": 6527,
      "Standards": 6528,
      "bronze": 6529,
      "Mediterranean": 6530,
      "Yet": 6531,
      "fert": 6532,
      "hell": 6533,
      "Therefore": 6534,
      "whenever": 6535,
      "brown": 6536,
      "##resp": 6537,
      "##ologists": 6538,
      "heavily": 6539,
      "regularly": 6540,
      "400": 6541,
      "Human": 6542,
      "Six": 6543,
      "WT": 6544,
      "##lines": 6545,
      "##oul": 6546,
      "##estation": 6547,
      "mans": 6548,
      "Thus": 6549,
      "finds": 6550,
      "charged": 6551,
      "equally": 6552,
      "consideration": 6553,
      "explanation": 6554,
      "disease": 6555,
      "##ault": 6556,
      "##inate": 6557,
      "##lla": 6558,
      "shift": 6559,
      "desire": 6560,
      "roll": 6561,
      "earned": 6562,
      "anticip": 6563,
      "hoping": 6564,
      "mosa": 6565,
      "ugly": 6566,
      "Person": 6567,
      "kitc": 6568,
      "##We": 6569,
      "considering": 6570,
      "12th": 6571,
      "Byzantine": 6572,
      "Alfred": 6573,
      "00": 6574,
      "32": 6575,
      "##hent": 6576,
      "##ician": 6577,
      "##eless": 6578,
      "scar": 6579,
      "moon": 6580,
      "visibility": 6581,
      "Carib": 6582,
      "handsome": 6583,
      "documentation": 6584,
      "Disney": 6585,
      "split": 6586,
      "ped": 6587,
      "##ads": 6588,
      "governor": 6589,
      "opposed": 6590,
      "healthy": 6591,
      "crowded": 6592,
      "Greuze": 6593,
      "sacred": 6594,
      "##OL": 6595,
      "##FO": 6596,
      "conscious": 6597,
      "modest": 6598,
      "formed": 6599,
      "portra": 6600,
      "Second": 6601,
      "bringing": 6602,
      "applications": 6603,
      "Party": 6604,
      "Small": 6605,
      "Africa": 6606,
      "Jac": 6607,
      "##yle": 6608,
      "##uge": 6609,
      "##inos": 6610,
      "##rey": 6611,
      "##acc": 6612,
      "coach": 6613,
      "charges": 6614,
      "Lawy": 6615,
      "galleries": 6616,
      "Hawai": 6617,
      "global": 6618,
      "Ah": 6619,
      "Kr": 6620,
      "Never": 6621,
      "##bar": 6622,
      "##illes": 6623,
      "shaped": 6624,
      "##venues": 6625,
      "unknown": 6626,
      "##ittees": 6627,
      "Week": 6628,
      "##anging": 6629,
      "removed": 6630,
      "perspective": 6631,
      "150": 6632,
      "causes": 6633,
      "stakeholders": 6634,
      "dish": 6635,
      "mental": 6636,
      "pa": 6637,
      "##ties": 6638,
      "##zes": 6639,
      "##ici": 6640,
      "##urers": 6641,
      "expense": 6642,
      "Chief": 6643,
      "charming": 6644,
      "answered": 6645,
      "attacks": 6646,
      "Clean": 6647,
      "clubs": 6648,
      "festival": 6649,
      "nerv": 6650,
      "pyram": 6651,
      "wages": 6652,
      "##itures": 6653,
      "##lem": 6654,
      "##stream": 6655,
      "cruc": 6656,
      "evolution": 6657,
      "##cience": 6658,
      "properly": 6659,
      "combined": 6660,
      "scholars": 6661,
      "ferry": 6662,
      "lying": 6663,
      "##ching": 6664,
      "##venir": 6665,
      "Trust": 6666,
      "Emperor": 6667,
      "suffered": 6668,
      "weakness": 6669,
      "ultimately": 6670,
      "CA": 6671,
      "lad": 6672,
      "mut": 6673,
      "##cy": 6674,
      "champ": 6675,
      "warri": 6676,
      "##ception": 6677,
      "CIOs": 6678,
      "Revolution": 6679,
      "Cas": 6680,
      "sought": 6681,
      "##oupe": 6682,
      "ships": 6683,
      "mel": 6684,
      "##ograp": 6685,
      "scope": 6686,
      "graph": 6687,
      "independence": 6688,
      "legislative": 6689,
      "survived": 6690,
      "Mel": 6691,
      "core": 6692,
      "countryside": 6693,
      "ski": 6694,
      "arrive": 6695,
      "encouraged": 6696,
      "precise": 6697,
      "Ottoman": 6698,
      "fing": 6699,
      "faster": 6700,
      "lined": 6701,
      "ozone": 6702,
      "tip": 6703,
      "##case": 6704,
      "chick": 6705,
      "Lee": 6706,
      "drag": 6707,
      "Colle": 6708,
      "superb": 6709,
      "bodies": 6710,
      "Women": 6711,
      "cous": 6712,
      "push": 6713,
      "##IV": 6714,
      "##BM": 6715,
      "##ensions": 6716,
      "guided": 6717,
      "relative": 6718,
      "depart": 6719,
      "implementing": 6720,
      "ordinary": 6721,
      "tombs": 6722,
      "inex": 6723,
      "announced": 6724,
      "Wed": 6725,
      "##oly": 6726,
      "noise": 6727,
      "user": 6728,
      "##rupted": 6729,
      "cooking": 6730,
      "innoc": 6731,
      "borrow": 6732,
      "ramp": 6733,
      "##anan": 6734,
      "inhab": 6735,
      "youth": 6736,
      "##acing": 6737,
      "##istical": 6738,
      "##uns": 6739,
      "ours": 6740,
      "transition": 6741,
      "silence": 6742,
      "contracts": 6743,
      "links": 6744,
      "comparison": 6745,
      "recycling": 6746,
      "Bes": 6747,
      "##rast": 6748,
      "##AL": 6749,
      "rein": 6750,
      "cooper": 6751,
      "puts": 6752,
      "species": 6753,
      "authent": 6754,
      "generations": 6755,
      "addresses": 6756,
      "##know": 6757,
      "strugg": 6758,
      "struggle": 6759,
      "situations": 6760,
      "consequences": 6761,
      "website": 6762,
      "##oulevard": 6763,
      "Agency": 6764,
      "CNN": 6765,
      "Loc": 6766,
      "dial": 6767,
      "hired": 6768,
      "soph": 6769,
      "##anes": 6770,
      "##osition": 6771,
      "meal": 6772,
      "delay": 6773,
      "Venice": 6774,
      "recipients": 6775,
      "fal": 6776,
      "roles": 6777,
      "##gate": 6778,
      "##whel": 6779,
      "##ima": 6780,
      "adults": 6781,
      "##ansas": 6782,
      "disaster": 6783,
      "estate": 6784,
      "responses": 6785,
      "gambling": 6786,
      "Nep": 6787,
      "Tax": 6788,
      "##oir": 6789,
      "prohib": 6790,
      "abortion": 6791,
      "democracy": 6792,
      "Society": 6793,
      "settle": 6794,
      "renov": 6795,
      "introduced": 6796,
      "beside": 6797,
      "GPRA": 6798,
      "Home": 6799,
      "ske": 6800,
      "##oque": 6801,
      "##ouses": 6802,
      "asset": 6803,
      "admin": 6804,
      "staying": 6805,
      "requested": 6806,
      "Michel": 6807,
      "souvenir": 6808,
      "Elect": 6809,
      "hob": 6810,
      "##ante": 6811,
      "shock": 6812,
      "191": 6813,
      "brick": 6814,
      "personnel": 6815,
      "publish": 6816,
      "panel": 6817,
      "patterns": 6818,
      "Dutch": 6819,
      "Year": 6820,
      "##van": 6821,
      "stair": 6822,
      "##iana": 6823,
      "smile": 6824,
      "Poll": 6825,
      "appearance": 6826,
      "degrees": 6827,
      "disappear": 6828,
      "conclusion": 6829,
      "components": 6830,
      "Vietnam": 6831,
      "analyses": 6832,
      "pair": 6833,
      "sits": 6834,
      "vent": 6835,
      "withd": 6836,
      "rob": 6837,
      "persons": 6838,
      "rising": 6839,
      "masterpie": 6840,
      "Priv": 6841,
      "satisfact": 6842,
      "Lind": 6843,
      "Sel": 6844,
      "plastic": 6845,
      "cloud": 6846,
      "regulation": 6847,
      "concerning": 6848,
      "judges": 6849,
      "demands": 6850,
      "enforcement": 6851,
      "erect": 6852,
      "tone": 6853,
      "##atre": 6854,
      "##lear": 6855,
      "##imination": 6856,
      "aggress": 6857,
      "accused": 6858,
      "practical": 6859,
      "annually": 6860,
      "stepped": 6861,
      "towers": 6862,
      "dismiss": 6863,
      "Nepal": 6864,
      "Jord": 6865,
      "##ta": 6866,
      "##eds": 6867,
      "tobac": 6868,
      "##adium": 6869,
      "chapter": 6870,
      "crimin": 6871,
      "resulting": 6872,
      "copies": 6873,
      "ticket": 6874,
      "monastery": 6875,
      "##ki": 6876,
      "##avy": 6877,
      "acknow": 6878,
      "existence": 6879,
      "initiative": 6880,
      "Francisc": 6881,
      "inspired": 6882,
      "adequate": 6883,
      "Disc": 6884,
      "Gates": 6885,
      "See": 6886,
      "dining": 6887,
      "ment": 6888,
      "saint": 6889,
      "##lick": 6890,
      "smo": 6891,
      "trained": 6892,
      "explo": 6893,
      "ruled": 6894,
      "Organiz": 6895,
      "describe": 6896,
      "##hetic": 6897,
      "##rastruct": 6898,
      "##urally": 6899,
      "impe": 6900,
      "imposing": 6901,
      "spr": 6902,
      "Arts": 6903,
      "Tuesday": 6904,
      "Aut": 6905,
      "##hy": 6906,
      "legend": 6907,
      "##quar": 6908,
      "climate": 6909,
      "##resents": 6910,
      "relationships": 6911,
      "summary": 6912,
      "Buch": 6913,
      "##iguration": 6914,
      "blame": 6915,
      "directors": 6916,
      "elected": 6917,
      "Slim": 6918,
      "participation": 6919,
      "principal": 6920,
      "error": 6921,
      "Muslims": 6922,
      "Raj": 6923,
      "complicated": 6924,
      "Back": 6925,
      "Hol": 6926,
      "ded": 6927,
      "##IP": 6928,
      "thin": 6929,
      "orn": 6930,
      "retired": 6931,
      "departments": 6932,
      "involves": 6933,
      "divided": 6934,
      "quietly": 6935,
      "vulner": 6936,
      "authentic": 6937,
      "##uits": 6938,
      "peak": 6939,
      "invasion": 6940,
      "phr": 6941,
      "deter": 6942,
      "grace": 6943,
      "About": 6944,
      "Environment": 6945,
      "capture": 6946,
      "railway": 6947,
      "extended": 6948,
      "Eval": 6949,
      "tor": 6950,
      "reporters": 6951,
      "##aved": 6952,
      "recall": 6953,
      "##ighter": 6954,
      "elabor": 6955,
      "installed": 6956,
      "danger": 6957,
      "African": 6958,
      "scientific": 6959,
      "Vol": 6960,
      "pace": 6961,
      "##asters": 6962,
      "##ader": 6963,
      "classic": 6964,
      "##aimed": 6965,
      "sandy": 6966,
      "Buddha": 6967,
      "sanct": 6968,
      "tobacco": 6969,
      "hook": 6970,
      "##gar": 6971,
      "unw": 6972,
      "capable": 6973,
      "moder": 6974,
      "starts": 6975,
      "defeat": 6976,
      "trips": 6977,
      "Major": 6978,
      "Market": 6979,
      "hunting": 6980,
      "Kosov": 6981,
      "600": 6982,
      "pit": 6983,
      "##adays": 6984,
      "neck": 6985,
      "##ques": 6986,
      "operation": 6987,
      "periods": 6988,
      "motor": 6989,
      "bags": 6990,
      "enthus": 6991,
      "Participants": 6992,
      "Eastern": 6993,
      "FC": 6994,
      "##cast": 6995,
      "##oting": 6996,
      "height": 6997,
      "conce": 6998,
      "plat": 6999,
      "represents": 7000,
      "resulted": 7001,
      "GAG": 7002,
      "engagement": 7003,
      "Crus": 7004,
      "captured": 7005,
      "enemies": 7006,
      "smoking": 7007,
      "Wal": 7008,
      "cin": 7009,
      "mic": 7010,
      "Nove": 7011,
      "transform": 7012,
      "prompt": 7013,
      "internet": 7014,
      "Planning": 7015,
      "##owntown": 7016,
      "Mall": 7017,
      "file": 7018,
      "stab": 7019,
      "unn": 7020,
      "descend": 7021,
      "##icted": 7022,
      "nonp": 7023,
      "##ION": 7024,
      "declined": 7025,
      "Standard": 7026,
      "vegetables": 7027,
      "scenario": 7028,
      "36": 7029,
      "Les": 7030,
      "dip": 7031,
      "##urities": 7032,
      "##amm": 7033,
      "##acks": 7034,
      "recru": 7035,
      "cheer": 7036,
      "marks": 7037,
      "triump": 7038,
      "##hips": 7039,
      "allowing": 7040,
      "officers": 7041,
      "contribute": 7042,
      "characteristics": 7043,
      "examine": 7044,
      "colonial": 7045,
      "expenditures": 7046,
      "Wednes": 7047,
      "Op": 7048,
      "gains": 7049,
      "##orse": 7050,
      "exists": 7051,
      "reserv": 7052,
      "tail": 7053,
      "desper": 7054,
      "county": 7055,
      "emission": 7056,
      "machines": 7057,
      "consumer": 7058,
      "enhance": 7059,
      "description": 7060,
      "nic": 7061,
      "thri": 7062,
      "democr": 7063,
      "privile": 7064,
      "installation": 7065,
      "Jose": 7066,
      "Pic": 7067,
      "torn": 7068,
      "tennis": 7069,
      "wise": 7070,
      "##kins": 7071,
      "##isher": 7072,
      "##irm": 7073,
      "Prof": 7074,
      "preferred": 7075,
      "killing": 7076,
      "opinions": 7077,
      "Islamic": 7078,
      "Puert": 7079,
      "Bos": 7080,
      "Rub": 7081,
      "bat": 7082,
      "ocean": 7083,
      "exemp": 7084,
      "map": 7085,
      "Thurs": 7086,
      "overwhel": 7087,
      "everyday": 7088,
      "fortun": 7089,
      "conclusions": 7090,
      "burned": 7091,
      "##orious": 7092,
      "ongoing": 7093,
      "courses": 7094,
      "locals": 7095,
      "controlled": 7096,
      "Expl": 7097,
      "Peace": 7098,
      "alternatives": 7099,
      "GAGAS": 7100,
      "AI": 7101,
      "##och": 7102,
      "##iable": 7103,
      "##rie": 7104,
      "##bey": 7105,
      "mailers": 7106,
      "professor": 7107,
      "judgment": 7108,
      "Vice": 7109,
      "sulfur": 7110,
      "yield": 7111,
      "##ege": 7112,
      "##zing": 7113,
      "tool": 7114,
      "##opes": 7115,
      "partner": 7116,
      "Guadel": 7117,
      "widely": 7118,
      "bedroom": 7119,
      "photograph": 7120,
      "experiences": 7121,
      "Super": 7122,
      "unex": 7123,
      "Unfortunately": 7124,
      "IV": 7125,
      "Non": 7126,
      "Ob": 7127,
      "fount": 7128,
      "##uzz": 7129,
      "##ether": 7130,
      "stairs": 7131,
      "acts": 7132,
      "Jordan": 7133,
      "Bab": 7134,
      "Fena": 7135,
      "Oper": 7136,
      "bread": 7137,
      "thro": 7138,
      "##uma": 7139,
      "acid": 7140,
      "taxi": 7141,
      "declared": 7142,
      "Right": 7143,
      "batt": 7144,
      "##coming": 7145,
      "flag": 7146,
      "Leon": 7147,
      "curious": 7148,
      "swung": 7149,
      "Cairo": 7150,
      "strike": 7151,
      "permit": 7152,
      "Visitors": 7153,
      "sophistic": 7154,
      "Guadeloupe": 7155,
      "Dorc": 7156,
      "kings": 7157,
      "##comm": 7158,
      "isol": 7159,
      "##uting": 7160,
      "##usted": 7161,
      "shout": 7162,
      "Through": 7163,
      "monarch": 7164,
      "Add": 7165,
      "##stronom": 7166,
      "drove": 7167,
      "shadow": 7168,
      "Latin": 7169,
      "Buchanan": 7170,
      "Hit": 7171,
      "IBM": 7172,
      "cycle": 7173,
      "dancing": 7174,
      "##ifies": 7175,
      "enact": 7176,
      "190": 7177,
      "images": 7178,
      "explains": 7179,
      "receip": 7180,
      "musical": 7181,
      "traveling": 7182,
      "eleven": 7183,
      "Policy": 7184,
      "powers": 7185,
      "##ugal": 7186,
      "##mn": 7187,
      "##AR": 7188,
      "##uter": 7189,
      "blank": 7190,
      "##obe": 7191,
      "cream": 7192,
      "excuse": 7193,
      "colorful": 7194,
      "diversity": 7195,
      "Dorcas": 7196,
      "Sar": 7197,
      "##onald": 7198,
      "click": 7199,
      "Morris": 7200,
      "teachers": 7201,
      "Karf": 7202,
      "Children": 7203,
      "Hug": 7204,
      "cow": 7205,
      "pig": 7206,
      "##ammed": 7207,
      "transl": 7208,
      "electron": 7209,
      "lively": 7210,
      "Plaza": 7211,
      "architectural": 7212,
      "boilerm": 7213,
      "Alexander": 7214,
      "basketball": 7215,
      "criminals": 7216,
      "Nat": 7217,
      "Penn": 7218,
      "bol": 7219,
      "##ros": 7220,
      "##apes": 7221,
      "ages": 7222,
      "assumption": 7223,
      "designs": 7224,
      "officer": 7225,
      "waited": 7226,
      "referred": 7227,
      "pir": 7228,
      "vital": 7229,
      "##inian": 7230,
      "truck": 7231,
      "Station": 7232,
      "receiving": 7233,
      "winds": 7234,
      "accessible": 7235,
      "Indiana": 7236,
      "establishing": 7237,
      "Democratic": 7238,
      "constantly": 7239,
      "visible": 7240,
      "profits": 7241,
      "##idding": 7242,
      "sixty": 7243,
      "missing": 7244,
      "Israeli": 7245,
      "fault": 7246,
      "weekends": 7247,
      "Plano": 7248,
      "jewelry": 7249,
      "Su": 7250,
      "Sure": 7251,
      "coc": 7252,
      "rode": 7253,
      "sights": 7254,
      "##pir": 7255,
      "##illing": 7256,
      "gosh": 7257,
      "compare": 7258,
      "struck": 7259,
      "economics": 7260,
      "objects": 7261,
      "Georg": 7262,
      "NOx": 7263,
      "compensation": 7264,
      "kitchen": 7265,
      "Den": 7266,
      "Data": 7267,
      "Rule": 7268,
      "Sav": 7269,
      "Would": 7270,
      "cuis": 7271,
      "##oons": 7272,
      "##semb": 7273,
      "##rove": 7274,
      "league": 7275,
      "cents": 7276,
      "flow": 7277,
      "metric": 7278,
      "passing": 7279,
      "identity": 7280,
      "Director": 7281,
      "agricultural": 7282,
      "enormous": 7283,
      "##rastructure": 7284,
      "November": 7285,
      "Far": 7286,
      "branch": 7287,
      "Palais": 7288,
      "achieving": 7289,
      "Canada": 7290,
      "release": 7291,
      "Castle": 7292,
      "ridiculous": 7293,
      "45": 7294,
      "Mill": 7295,
      "Van": 7296,
      "kil": 7297,
      "wage": 7298,
      "##stone": 7299,
      "##etary": 7300,
      "##seless": 7301,
      "obtained": 7302,
      "taxpay": 7303,
      "dealing": 7304,
      "portray": 7305,
      "denied": 7306,
      "Lewis": 7307,
      "ethnic": 7308,
      "concluded": 7309,
      "Gallery": 7310,
      "occasionally": 7311,
      "brilliant": 7312,
      "accordance": 7313,
      "55": 7314,
      "Ver": 7315,
      "expans": 7316,
      "solic": 7317,
      "answers": 7318,
      "crowds": 7319,
      "pocket": 7320,
      "aer": 7321,
      "pour": 7322,
      "##atoes": 7323,
      "myster": 7324,
      "repair": 7325,
      "##angers": 7326,
      "supports": 7327,
      "discover": 7328,
      "simpl": 7329,
      "headed": 7330,
      "sugar": 7331,
      "returns": 7332,
      "Charl": 7333,
      "NAT": 7334,
      "rig": 7335,
      "##rest": 7336,
      "##utory": 7337,
      "arc": 7338,
      "regions": 7339,
      "Club": 7340,
      "instances": 7341,
      "directed": 7342,
      "eleph": 7343,
      "Aege": 7344,
      "Lord": 7345,
      "Pan": 7346,
      "migr": 7347,
      "##ua": 7348,
      "##anda": 7349,
      "shirt": 7350,
      "Young": 7351,
      "remote": 7352,
      "boards": 7353,
      "stops": 7354,
      "Prud": 7355,
      "interpretation": 7356,
      "Kentucky": 7357,
      "Funch": 7358,
      "bureau": 7359,
      "ox": 7360,
      "alb": 7361,
      "pleased": 7362,
      "encl": 7363,
      "neighbors": 7364,
      "Wednesday": 7365,
      "Nor": 7366,
      "hun": 7367,
      "##iot": 7368,
      "##ko": 7369,
      "##ester": 7370,
      "##itage": 7371,
      "##aval": 7372,
      "undert": 7373,
      "committees": 7374,
      "evil": 7375,
      "1990s": 7376,
      "operate": 7377,
      "Trans": 7378,
      "professionals": 7379,
      "treasures": 7380,
      "groc": 7381,
      "Golden": 7382,
      "forgotten": 7383,
      "Aegean": 7384,
      "GOP": 7385,
      "por": 7386,
      "##rogen": 7387,
      "##uls": 7388,
      "ate": 7389,
      "nose": 7390,
      "yours": 7391,
      "highlight": 7392,
      "locations": 7393,
      "Bridge": 7394,
      "viewed": 7395,
      "employers": 7396,
      "confident": 7397,
      "maintained": 7398,
      "##ipping": 7399,
      "litigation": 7400,
      "fingers": 7401,
      "Funchal": 7402,
      "Having": 7403,
      "##oric": 7404,
      "bell": 7405,
      "streng": 7406,
      "flav": 7407,
      "acceptable": 7408,
      "pollut": 7409,
      "linked": 7410,
      "Agencies": 7411,
      "festivals": 7412,
      "pushed": 7413,
      "rival": 7414,
      "wet": 7415,
      "unre": 7416,
      "performances": 7417,
      "feelings": 7418,
      "terrif": 7419,
      "closely": 7420,
      "holiday": 7421,
      "Dom": 7422,
      "hes": 7423,
      "##erg": 7424,
      "##abled": 7425,
      "prime": 7426,
      "##agn": 7427,
      "caf": 7428,
      "Christians": 7429,
      "contribution": 7430,
      "researchers": 7431,
      "95": 7432,
      "Nort": 7433,
      "Offic": 7434,
      "dict": 7435,
      "gang": 7436,
      "flight": 7437,
      "performing": 7438,
      "surely": 7439,
      "189": 7440,
      "topics": 7441,
      "Prin": 7442,
      "figured": 7443,
      "considerable": 7444,
      "mixed": 7445,
      "premature": 7446,
      "Jackson": 7447,
      "philosoph": 7448,
      "Whe": 7449,
      "##aus": 7450,
      "##LA": 7451,
      "##NC": 7452,
      "##oma": 7453,
      "##ems": 7454,
      "##awa": 7455,
      "blind": 7456,
      "Force": 7457,
      "nonf": 7458,
      "Baroque": 7459,
      "Others": 7460,
      "physicians": 7461,
      "hospitals": 7462,
      "volunteer": 7463,
      "CB": 7464,
      "dull": 7465,
      "je": 7466,
      "##alle": 7467,
      "sew": 7468,
      "frustr": 7469,
      "##andy": 7470,
      "financing": 7471,
      "seconds": 7472,
      "fifth": 7473,
      "priority": 7474,
      "altar": 7475,
      "Modern": 7476,
      "Camp": 7477,
      "##aust": 7478,
      "##orer": 7479,
      "##asks": 7480,
      "somehow": 7481,
      "##agues": 7482,
      "distingu": 7483,
      "186": 7484,
      "187": 7485,
      "##ambers": 7486,
      "Malay": 7487,
      "proposals": 7488,
      "gathered": 7489,
      "oriented": 7490,
      "Kell": 7491,
      "gained": 7492,
      "monop": 7493,
      "loves": 7494,
      "##bean": 7495,
      "skill": 7496,
      "protest": 7497,
      "projections": 7498,
      "exclud": 7499,
      "encoun": 7500,
      "recorded": 7501,
      "Turkey": 7502,
      "integrity": 7503,
      "vehicle": 7504,
      "converted": 7505,
      "Bureau": 7506,
      "Mand": 7507,
      "OP": 7508,
      "nations": 7509,
      "pink": 7510,
      "##bre": 7511,
      "##rich": 7512,
      "##kin": 7513,
      "##iner": 7514,
      "##istent": 7515,
      "tape": 7516,
      "employer": 7517,
      "Develop": 7518,
      "laun": 7519,
      "mandatory": 7520,
      "involvement": 7521,
      "writers": 7522,
      "Environmental": 7523,
      "platform": 7524,
      "Pet": 7525,
      "Rams": 7526,
      "dressed": 7527,
      "jack": 7528,
      "rice": 7529,
      "##ii": 7530,
      "##itated": 7531,
      "rely": 7532,
      "seas": 7533,
      "diverse": 7534,
      "Shil": 7535,
      "Edward": 7536,
      "hoped": 7537,
      "evaluate": 7538,
      "situated": 7539,
      "laughed": 7540,
      "tab": 7541,
      "##ardo": 7542,
      "myth": 7543,
      "walks": 7544,
      "Educ": 7545,
      "breakfast": 7546,
      "editorial": 7547,
      "subsequent": 7548,
      "Antonio": 7549,
      "Fest": 7550,
      "Naz": 7551,
      "##hew": 7552,
      "uncon": 7553,
      "handling": 7554,
      "statute": 7555,
      "coastal": 7556,
      "Blue": 7557,
      "epis": 7558,
      "monitoring": 7559,
      "Ha": 7560,
      "NY": 7561,
      "Very": 7562,
      "##eling": 7563,
      "boom": 7564,
      "barri": 7565,
      "pottery": 7566,
      "purchased": 7567,
      "blocks": 7568,
      "##heimmer": 7569,
      "surface": 7570,
      "earthquake": 7571,
      "cousin": 7572,
      "Mat": 7573,
      "dome": 7574,
      "rational": 7575,
      "##har": 7576,
      "##va": 7577,
      "##inced": 7578,
      "toxic": 7579,
      "unb": 7580,
      "union": 7581,
      "##lessly": 7582,
      "driver": 7583,
      "Constant": 7584,
      "authorities": 7585,
      "riders": 7586,
      "consumers": 7587,
      "##orca": 7588,
      "surplus": 7589,
      "deficit": 7590,
      "enemy": 7591,
      "implications": 7592,
      "Hersheimmer": 7593,
      "chicken": 7594,
      "Hou": 7595,
      "locked": 7596,
      "pounds": 7597,
      "veter": 7598,
      "tran": 7599,
      "requiring": 7600,
      "passion": 7601,
      "oppon": 7602,
      "popularity": 7603,
      "traveled": 7604,
      "burning": 7605,
      "Christianity": 7606,
      "magazines": 7607,
      "Austral": 7608,
      "carrier": 7609,
      "carpet": 7610,
      "Houston": 7611,
      "##etic": 7612,
      "dear": 7613,
      "Thank": 7614,
      "##ava": 7615,
      "lessons": 7616,
      "Shop": 7617,
      "corresp": 7618,
      "salary": 7619,
      "dil": 7620,
      "joint": 7621,
      "##night": 7622,
      "##leg": 7623,
      "filed": 7624,
      "division": 7625,
      "drawing": 7626,
      "reforms": 7627,
      "Kirby": 7628,
      "Ren": 7629,
      "ax": 7630,
      "sau": 7631,
      "wars": 7632,
      "##coes": 7633,
      "##osh": 7634,
      "##achment": 7635,
      "consolid": 7636,
      "highway": 7637,
      "deliber": 7638,
      "##ropical": 7639,
      "##inois": 7640,
      "unlikely": 7641,
      "800": 7642,
      "##iently": 7643,
      "promise": 7644,
      "recognition": 7645,
      "adjustment": 7646,
      "comprom": 7647,
      "Caribbean": 7648,
      "Shiloh": 7649,
      "##OR": 7650,
      "chosen": 7651,
      "##ocol": 7652,
      "blow": 7653,
      "trails": 7654,
      "designated": 7655,
      "Shannon": 7656,
      "destruction": 7657,
      "Employ": 7658,
      "##load": 7659,
      "injured": 7660,
      "##azzo": 7661,
      "deficits": 7662,
      "immigration": 7663,
      "Hillary": 7664,
      "luxury": 7665,
      "unemployment": 7666,
      "NATO": 7667,
      "Bern": 7668,
      "Cete": 7669,
      "Ham": 7670,
      "Ple": 7671,
      "lock": 7672,
      "##lor": 7673,
      "##fl": 7674,
      "##amental": 7675,
      "##ili": 7676,
      "##ums": 7677,
      "##iano": 7678,
      "statistics": 7679,
      "examination": 7680,
      "relaxed": 7681,
      "immigrants": 7682,
      "vehicles": 7683,
      "license": 7684,
      "boutiques": 7685,
      "##essions": 7686,
      "upstairs": 7687,
      "Stat": 7688,
      "gray": 7689,
      "##ugs": 7690,
      "economists": 7691,
      "employed": 7692,
      "Prod": 7693,
      "limestone": 7694,
      "Room": 7695,
      "beautifully": 7696,
      "Results": 7697,
      "Martinique": 7698,
      "Luc": 7699,
      "Test": 7700,
      "##bul": 7701,
      "##DS": 7702,
      "##omach": 7703,
      "##oli": 7704,
      "clar": 7705,
      "imposed": 7706,
      "##pected": 7707,
      "Being": 7708,
      "continuing": 7709,
      "annoy": 7710,
      "crack": 7711,
      "murd": 7712,
      "ignore": 7713,
      "Steven": 7714,
      "confirmed": 7715,
      "Dame": 7716,
      "Labor": 7717,
      "##fall": 7718,
      "##rip": 7719,
      "ads": 7720,
      "grade": 7721,
      "buff": 7722,
      "##ilding": 7723,
      "Bell": 7724,
      "##ropri": 7725,
      "argued": 7726,
      "unfair": 7727,
      "##rofits": 7728,
      "component": 7729,
      "Southern": 7730,
      "nuc": 7731,
      "wound": 7732,
      "##eath": 7733,
      "##uine": 7734,
      "##itual": 7735,
      "threw": 7736,
      "##isters": 7737,
      "##ilica": 7738,
      "fright": 7739,
      "exotic": 7740,
      "##aws": 7741,
      "mini": 7742,
      "advanced": 7743,
      "statutory": 7744,
      "apartments": 7745,
      "striking": 7746,
      "Iran": 7747,
      "Earth": 7748,
      "rejected": 7749,
      "Juan": 7750,
      "Paper": 7751,
      "dirty": 7752,
      "##cer": 7753,
      "exec": 7754,
      "##rychn": 7755,
      "flour": 7756,
      "badly": 7757,
      "swing": 7758,
      "blacks": 7759,
      "qualified": 7760,
      "Mosque": 7761,
      "romantic": 7762,
      "Thursday": 7763,
      "Circ": 7764,
      "Gar": 7765,
      "pays": 7766,
      "##oda": 7767,
      "##ache": 7768,
      "handled": 7769,
      "coastline": 7770,
      "shrines": 7771,
      "voted": 7772,
      "indicated": 7773,
      "summar": 7774,
      "talent": 7775,
      "Illinois": 7776,
      "Lawyers": 7777,
      "Kosovo": 7778,
      "FCC": 7779,
      "Gau": 7780,
      "##lined": 7781,
      "##boys": 7782,
      "##hors": 7783,
      "##inn": 7784,
      "sees": 7785,
      "##race": 7786,
      "##oked": 7787,
      "aggreg": 7788,
      "gran": 7789,
      "pools": 7790,
      "nights": 7791,
      "granted": 7792,
      "##iffer": 7793,
      "complaint": 7794,
      "false": 7795,
      "Pot": 7796,
      "Toph": 7797,
      "pond": 7798,
      "till": 7799,
      "##rem": 7800,
      "##mental": 7801,
      "lean": 7802,
      "decent": 7803,
      "presents": 7804,
      "secure": 7805,
      "drunk": 7806,
      "##ourage": 7807,
      "##oxide": 7808,
      "discounts": 7809,
      "Mexican": 7810,
      "casual": 7811,
      "besides": 7812,
      "inquir": 7813,
      "##rychnine": 7814,
      "Sol": 7815,
      "##esque": 7816,
      "##iva": 7817,
      "nowhere": 7818,
      "grab": 7819,
      "passage": 7820,
      "authorized": 7821,
      "agreements": 7822,
      "apolog": 7823,
      "determining": 7824,
      "exception": 7825,
      "unfortunately": 7826,
      "hanging": 7827,
      "Topham": 7828,
      "Lib": 7829,
      "Science": 7830,
      "Ta": 7831,
      "##ka": 7832,
      "##isons": 7833,
      "forb": 7834,
      "Thanks": 7835,
      "personally": 7836,
      "parent": 7837,
      "auditing": 7838,
      "Monte": 7839,
      "optim": 7840,
      "frescoes": 7841,
      "corporations": 7842,
      "convinced": 7843,
      "Venetian": 7844,
      "erected": 7845,
      "Boulevard": 7846,
      "ain": 7847,
      "dre": 7848,
      "##HS": 7849,
      "yellow": 7850,
      "##aux": 7851,
      "adult": 7852,
      "newly": 7853,
      "affairs": 7854,
      "demonstration": 7855,
      "elaborate": 7856,
      "Ist": 7857,
      "Press": 7858,
      "Rob": 7859,
      "gif": 7860,
      "external": 7861,
      "theme": 7862,
      "covering": 7863,
      "Next": 7864,
      "innovative": 7865,
      "Hitler": 7866,
      "rot": 7867,
      "vir": 7868,
      "##gments": 7869,
      "##LS": 7870,
      "##ED": 7871,
      "acting": 7872,
      "desp": 7873,
      "retail": 7874,
      "plane": 7875,
      "Carl": 7876,
      "housed": 7877,
      "addressing": 7878,
      "settings": 7879,
      "drawings": 7880,
      "victim": 7881,
      "informed": 7882,
      "Ramses": 7883,
      "Life": 7884,
      "Mir": 7885,
      "finger": 7886,
      "##oom": 7887,
      "##iors": 7888,
      "inher": 7889,
      "##iration": 7890,
      "provision": 7891,
      "routine": 7892,
      "fallen": 7893,
      "Portugal": 7894,
      "cruise": 7895,
      "Set": 7896,
      "fiction": 7897,
      "rub": 7898,
      "##epend": 7899,
      "proven": 7900,
      "deals": 7901,
      "##odox": 7902,
      "##00s": 7903,
      "entit": 7904,
      "breaking": 7905,
      "secretary": 7906,
      "prosper": 7907,
      "WTP": 7908,
      "Cro": 7909,
      "Cop": 7910,
      "Fly": 7911,
      "vine": 7912,
      "##ENT": 7913,
      "beer": 7914,
      "habit": 7915,
      "sequ": 7916,
      "##unning": 7917,
      "impressed": 7918,
      "1980s": 7919,
      "divorce": 7920,
      "defeated": 7921,
      "responded": 7922,
      "maximum": 7923,
      "nervous": 7924,
      "College": 7925,
      "Gh": 7926,
      "MWe": 7927,
      "Roy": 7928,
      "dying": 7929,
      "##fare": 7930,
      "##PS": 7931,
      "stadium": 7932,
      "liqu": 7933,
      "Prop": 7934,
      "solve": 7935,
      "objective": 7936,
      "soul": 7937,
      "Special": 7938,
      "Come": 7939,
      "Det": 7940,
      "useless": 7941,
      "##umer": 7942,
      "attestation": 7943,
      "accountable": 7944,
      "Point": 7945,
      "errors": 7946,
      "farmers": 7947,
      "hypot": 7948,
      "mall": 7949,
      "ritual": 7950,
      "##makers": 7951,
      "retain": 7952,
      "equival": 7953,
      "Mean": 7954,
      "History": 7955,
      "smooth": 7956,
      "Emer": 7957,
      "Pier": 7958,
      "tub": 7959,
      "resem": 7960,
      "sla": 7961,
      "mainland": 7962,
      "dealers": 7963,
      "Greece": 7964,
      "controversial": 7965,
      "Bible": 7966,
      "Had": 7967,
      "Sultan": 7968,
      "cer": 7969,
      "rivers": 7970,
      "##field": 7971,
      "##uji": 7972,
      "##atures": 7973,
      "##orous": 7974,
      "trick": 7975,
      "##ails": 7976,
      "domin": 7977,
      "influenced": 7978,
      "Coast": 7979,
      "sculpted": 7980,
      "guarantee": 7981,
      "Puerto": 7982,
      "Five": 7983,
      "density": 7984,
      "nit": 7985,
      "sli": 7986,
      "##sts": 7987,
      "##sters": 7988,
      "remove": 7989,
      "drivers": 7990,
      "opera": 7991,
      "palaces": 7992,
      "Delhi": 7993,
      "Nema": 7994,
      "jur": 7995,
      "joke": 7996,
      "##lete": 7997,
      "##ller": 7998,
      "##tering": 7999,
      "cans": 8000,
      "sail": 8001,
      "exposed": 8002,
      "define": 8003,
      "airport": 8004,
      "managing": 8005,
      "maintaining": 8006,
      "ensuring": 8007,
      "arrested": 8008,
      "damaged": 8009,
      "indicate": 8010,
      "picturesque": 8011,
      "delightful": 8012,
      "Da": 8013,
      "HUD": 8014,
      "Mid": 8015,
      "Mass": 8016,
      "PP": 8017,
      "Ut": 8018,
      "farther": 8019,
      "##dess": 8020,
      "letting": 8021,
      "##ropol": 8022,
      "entering": 8023,
      "ultimate": 8024,
      "carriers": 8025,
      "scenarios": 8026,
      "rebuilt": 8027,
      "innocent": 8028,
      "satisfaction": 8029,
      "Access": 8030,
      "Bost": 8031,
      "Less": 8032,
      "##ture": 8033,
      "##mony": 8034,
      "##zo": 8035,
      "##BI": 8036,
      "##nda": 8037,
      "frame": 8038,
      "##aki": 8039,
      "ourselves": 8040,
      "awards": 8041,
      "representative": 8042,
      "lifet": 8043,
      "convenient": 8044,
      "AIC": 8045,
      "LA": 8046,
      "Lis": 8047,
      "##vin": 8048,
      "##jo": 8049,
      "anx": 8050,
      "##odes": 8051,
      "constra": 8052,
      "suic": 8053,
      "cares": 8054,
      "substance": 8055,
      "instruct": 8056,
      "demanded": 8057,
      "Florence": 8058,
      "ninety": 8059,
      "Secretary": 8060,
      "Industrial": 8061,
      "Boston": 8062,
      "Alp": 8063,
      "##atab": 8064,
      "##urred": 8065,
      "noble": 8066,
      "disg": 8067,
      "assigned": 8068,
      "studying": 8069,
      "subur": 8070,
      "subsc": 8071,
      "surg": 8072,
      "1991": 8073,
      "talks": 8074,
      "depth": 8075,
      "##arrass": 8076,
      "excav": 8077,
      "Muse": 8078,
      "significance": 8079,
      "difficulty": 8080,
      "Amend": 8081,
      "hopes": 8082,
      "seventy": 8083,
      "Boris": 8084,
      "correspond": 8085,
      "Pac": 8086,
      "phen": 8087,
      "wid": 8088,
      "##IPA": 8089,
      "##asy": 8090,
      "##ican": 8091,
      "##ications": 8092,
      "##agraph": 8093,
      "impression": 8094,
      "guests": 8095,
      "Army": 8096,
      "profile": 8097,
      "focuses": 8098,
      "Polit": 8099,
      "sleeping": 8100,
      "Id": 8101,
      "elev": 8102,
      "wow": 8103,
      "##rary": 8104,
      "##organiz": 8105,
      "reaction": 8106,
      "proof": 8107,
      "##abb": 8108,
      "Inside": 8109,
      "sheep": 8110,
      "Notre": 8111,
      "Kingdom": 8112,
      "collabor": 8113,
      "Tourist": 8114,
      "Festival": 8115,
      "fancy": 8116,
      "gaz": 8117,
      "pump": 8118,
      "##gage": 8119,
      "##orge": 8120,
      "chamber": 8121,
      "offset": 8122,
      "##ucks": 8123,
      "supplies": 8124,
      "genuine": 8125,
      "retreat": 8126,
      "warn": 8127,
      "monthly": 8128,
      "legit": 8129,
      "wondered": 8130,
      "speaker": 8131,
      "connected": 8132,
      "earnings": 8133,
      "songs": 8134,
      "Using": 8135,
      "Bauerstein": 8136,
      "facilitate": 8137,
      "aerob": 8138,
      "37": 8139,
      "bow": 8140,
      "##arter": 8141,
      "##quis": 8142,
      "##inking": 8143,
      "reprod": 8144,
      "warning": 8145,
      "fundamental": 8146,
      "grave": 8147,
      "rapier": 8148,
      "AICPA": 8149,
      "Aff": 8150,
      "Lux": 8151,
      "##omo": 8152,
      "unl": 8153,
      "spin": 8154,
      "syn": 8155,
      "reluct": 8156,
      "discovery": 8157,
      "landmark": 8158,
      "subjects": 8159,
      "embarrass": 8160,
      "util": 8161,
      "Steve": 8162,
      "ninete": 8163,
      "bathroom": 8164,
      "Duke": 8165,
      "crucial": 8166,
      "Vers": 8167,
      "##mand": 8168,
      "donations": 8169,
      "unh": 8170,
      "dioxide": 8171,
      "monks": 8172,
      "obsc": 8173,
      "illness": 8174,
      "attacked": 8175,
      "attempts": 8176,
      "emphasis": 8177,
      "Ly": 8178,
      "Vin": 8179,
      "zero": 8180,
      "##zens": 8181,
      "##amics": 8182,
      "knock": 8183,
      "##outheast": 8184,
      "##active": 8185,
      "Alcohol": 8186,
      "checked": 8187,
      "clever": 8188,
      "discusses": 8189,
      "Computer": 8190,
      "acquired": 8191,
      "creative": 8192,
      "confirm": 8193,
      "outdoor": 8194,
      "cuisine": 8195,
      "fulf": 8196,
      "ric": 8197,
      "##ala": 8198,
      "trials": 8199,
      "Exhib": 8200,
      "Perth": 8201,
      "recommendation": 8202,
      "interviews": 8203,
      "Simon": 8204,
      "roughly": 8205,
      "spoken": 8206,
      "Jacob": 8207,
      "Jr": 8208,
      "PR": 8209,
      "##40": 8210,
      "##mir": 8211,
      "inland": 8212,
      "stor": 8213,
      "##ules": 8214,
      "##acle": 8215,
      "##ocols": 8216,
      "guides": 8217,
      "lasted": 8218,
      "confused": 8219,
      "##appy": 8220,
      "immediate": 8221,
      "suffer": 8222,
      "etc": 8223,
      "cliffs": 8224,
      "hiking": 8225,
      "gest": 8226,
      "toler": 8227,
      "##ashing": 8228,
      "##otton": 8229,
      "##udes": 8230,
      "deserve": 8231,
      "deaths": 8232,
      "Assess": 8233,
      "permitted": 8234,
      "communications": 8235,
      "integrated": 8236,
      "Jeff": 8237,
      "sauce": 8238,
      "IN": 8239,
      "NH": 8240,
      "UN": 8241,
      "sin": 8242,
      "##nding": 8243,
      "revenues": 8244,
      "stomach": 8245,
      "##opher": 8246,
      "alike": 8247,
      "economically": 8248,
      "productive": 8249,
      "##anking": 8250,
      "statistical": 8251,
      "horror": 8252,
      "strongly": 8253,
      "swords": 8254,
      "injury": 8255,
      "spiritual": 8256,
      "Form": 8257,
      "Food": 8258,
      "Lor": 8259,
      "Tim": 8260,
      "ju": 8261,
      "##eur": 8262,
      "##com": 8263,
      "constit": 8264,
      "wheel": 8265,
      "relating": 8266,
      "supplement": 8267,
      "dominated": 8268,
      "association": 8269,
      "Programs": 8270,
      "advertise": 8271,
      "Capital": 8272,
      "holy": 8273,
      "lifest": 8274,
      "advocates": 8275,
      "alleg": 8276,
      "Gardens": 8277,
      "Personal": 8278,
      "launched": 8279,
      "Di": 8280,
      "Effect": 8281,
      "##lights": 8282,
      "carvings": 8283,
      "evol": 8284,
      "Bron": 8285,
      "Should": 8286,
      "Conf": 8287,
      "travelers": 8288,
      "broadcast": 8289,
      "submit": 8290,
      "Follow": 8291,
      "rapidly": 8292,
      "academic": 8293,
      "occasional": 8294,
      "Besides": 8295,
      "Flex": 8296,
      "Mons": 8297,
      "Nic": 8298,
      "Tor": 8299,
      "ec": 8300,
      "pine": 8301,
      "##10": 8302,
      "reign": 8303,
      "ath": 8304,
      "##okes": 8305,
      "##izza": 8306,
      "recre": 8307,
      "attended": 8308,
      "##angelo": 8309,
      "Altern": 8310,
      "refers": 8311,
      "methodology": 8312,
      "neglect": 8313,
      "installations": 8314,
      "displayed": 8315,
      "renew": 8316,
      "Atlanta": 8317,
      "pilgrims": 8318,
      "Base": 8319,
      "ast": 8320,
      "fisher": 8321,
      "laugh": 8322,
      "##war": 8323,
      "##orus": 8324,
      "##ouri": 8325,
      "agents": 8326,
      "beneath": 8327,
      "reflected": 8328,
      "concentration": 8329,
      "ceremony": 8330,
      "hiring": 8331,
      "##estig": 8332,
      "incident": 8333,
      "shell": 8334,
      "assign": 8335,
      "invited": 8336,
      "concrete": 8337,
      "transactions": 8338,
      "enjoys": 8339,
      "Beh": 8340,
      "excurs": 8341,
      "device": 8342,
      "Assist": 8343,
      "reaching": 8344,
      "Again": 8345,
      "institutions": 8346,
      "Walk": 8347,
      "auction": 8348,
      "flying": 8349,
      "pist": 8350,
      "##aying": 8351,
      "##anger": 8352,
      "actor": 8353,
      "authors": 8354,
      "experiment": 8355,
      "Conrad": 8356,
      "regarded": 8357,
      "##araoh": 8358,
      "adopt": 8359,
      "injuries": 8360,
      "observation": 8361,
      "Protest": 8362,
      "contemporary": 8363,
      "concerts": 8364,
      "inexp": 8365,
      "Way": 8366,
      "tropical": 8367,
      "##cr": 8368,
      "abroad": 8369,
      "accum": 8370,
      "switch": 8371,
      "availability": 8372,
      "premium": 8373,
      "resistance": 8374,
      "Columbus": 8375,
      "throat": 8376,
      "downtown": 8377,
      "react": 8378,
      "outstanding": 8379,
      "prepar": 8380,
      "##nell": 8381,
      "##orthy": 8382,
      "trends": 8383,
      "inflation": 8384,
      "priorities": 8385,
      "exhibition": 8386,
      "expertise": 8387,
      "Incre": 8388,
      "derived": 8389,
      "discrimination": 8390,
      "Fer": 8391,
      "nurse": 8392,
      "pupp": 8393,
      "##rical": 8394,
      "##oning": 8395,
      "beard": 8396,
      "haz": 8397,
      "##thodox": 8398,
      "##embers": 8399,
      "Things": 8400,
      "##licit": 8401,
      "trauma": 8402,
      "##ribe": 8403,
      "Unlike": 8404,
      "Indeed": 8405,
      "mothers": 8406,
      "strip": 8407,
      "boxes": 8408,
      "Corps": 8409,
      "fantastic": 8410,
      "wedding": 8411,
      "Pa": 8412,
      "pound": 8413,
      "##then": 8414,
      "##yard": 8415,
      "##cel": 8416,
      "##oled": 8417,
      "##ocaust": 8418,
      "Third": 8419,
      "populations": 8420,
      "transaction": 8421,
      "marvel": 8422,
      "patron": 8423,
      "poorly": 8424,
      "educational": 8425,
      "terrace": 8426,
      "archaeological": 8427,
      "enthusi": 8428,
      "Lam": 8429,
      "Ori": 8430,
      "Sign": 8431,
      "Wol": 8432,
      "##pread": 8433,
      "strychnine": 8434,
      "crash": 8435,
      "Which": 8436,
      "adding": 8437,
      "compete": 8438,
      "multi": 8439,
      "deeply": 8440,
      "quarterback": 8441,
      "guaranteed": 8442,
      "expansion": 8443,
      "65": 8444,
      "HC": 8445,
      "wire": 8446,
      "##ien": 8447,
      "ash": 8448,
      "exha": 8449,
      "shade": 8450,
      "transm": 8451,
      "Spring": 8452,
      "legs": 8453,
      "wondering": 8454,
      "sunset": 8455,
      "transferred": 8456,
      "virtually": 8457,
      "Macau": 8458,
      "lifetime": 8459,
      "Flexibility": 8460,
      "39": 8461,
      "Hav": 8462,
      "Pont": 8463,
      "Wolf": 8464,
      "datab": 8465,
      "falls": 8466,
      "mild": 8467,
      "##ND": 8468,
      "seats": 8469,
      "refuge": 8470,
      "initially": 8471,
      "extraord": 8472,
      "Medicaid": 8473,
      "Moh": 8474,
      "Rain": 8475,
      "Sadd": 8476,
      "Tar": 8477,
      "VA": 8478,
      "##pers": 8479,
      "conj": 8480,
      "lips": 8481,
      "suits": 8482,
      "tech": 8483,
      "crown": 8484,
      "infrastructure": 8485,
      "behalf": 8486,
      "Prince": 8487,
      "absence": 8488,
      "establishment": 8489,
      "paths": 8490,
      "conservatives": 8491,
      "fabric": 8492,
      "Prudie": 8493,
      "nineteen": 8494,
      "Ell": 8495,
      "stained": 8496,
      "##ials": 8497,
      "nowadays": 8498,
      "fled": 8499,
      "planet": 8500,
      "##struct": 8501,
      "confront": 8502,
      "protot": 8503,
      "listened": 8504,
      "promised": 8505,
      "treaty": 8506,
      "indicates": 8507,
      "fashioned": 8508,
      "suffering": 8509,
      "touched": 8510,
      "feedback": 8511,
      "aimed": 8512,
      "cabin": 8513,
      "channel": 8514,
      "weaknesses": 8515,
      "ornate": 8516,
      "42": 8517,
      "##mother": 8518,
      "##wr": 8519,
      "##areness": 8520,
      "##istry": 8521,
      "##apse": 8522,
      "acres": 8523,
      "##ologist": 8524,
      "Real": 8525,
      "enjoyable": 8526,
      "cultures": 8527,
      "Palazzo": 8528,
      "dependent": 8529,
      "1989": 8530,
      "inev": 8531,
      "jumped": 8532,
      "prosecut": 8533,
      "Michelangelo": 8534,
      "phrase": 8535,
      "Cult": 8536,
      "Rap": 8537,
      "diving": 8538,
      "gap": 8539,
      "recycle": 8540,
      "indig": 8541,
      "reader": 8542,
      "banned": 8543,
      "Ohio": 8544,
      "1960s": 8545,
      "Garden": 8546,
      "staircase": 8547,
      "Sn": 8548,
      "laz": 8549,
      "##lom": 8550,
      "##irable": 8551,
      "##imental": 8552,
      "##osa": 8553,
      "reporter": 8554,
      "##anches": 8555,
      "belt": 8556,
      "personality": 8557,
      "simulation": 8558,
      "visitor": 8559,
      "Independ": 8560,
      "refres": 8561,
      "cataly": 8562,
      "##onym": 8563,
      "Romanesque": 8564,
      "dramatically": 8565,
      "announce": 8566,
      "stretch": 8567,
      "acknowled": 8568,
      "aerobics": 8569,
      "Hon": 8570,
      "Master": 8571,
      "Ten": 8572,
      "cyn": 8573,
      "om": 8574,
      "##cest": 8575,
      "##itivity": 8576,
      "anger": 8577,
      "##eline": 8578,
      "manual": 8579,
      "humans": 8580,
      "parad": 8581,
      "paragraph": 8582,
      "temporary": 8583,
      "expecting": 8584,
      "awareness": 8585,
      "Much": 8586,
      "craw": 8587,
      "minded": 8588,
      "crossed": 8589,
      "femin": 8590,
      "incentive": 8591,
      "praise": 8592,
      "Victorian": 8593,
      "lobby": 8594,
      "Osaka": 8595,
      "Please": 8596,
      "Istan": 8597,
      "01": 8598,
      "Care": 8599,
      "Pop": 8600,
      "gir": 8601,
      "jazz": 8602,
      "kick": 8603,
      "loyal": 8604,
      "pushing": 8605,
      "rides": 8606,
      "vice": 8607,
      "##bound": 8608,
      "forec": 8609,
      "Stone": 8610,
      "##ogether": 8611,
      "pregn": 8612,
      "throne": 8613,
      "commemor": 8614,
      "engaged": 8615,
      "files": 8616,
      "USA": 8617,
      "photo": 8618,
      "Serb": 8619,
      "ruined": 8620,
      "camera": 8621,
      "merchants": 8622,
      "Defense": 8623,
      "##ING": 8624,
      "Profess": 8625,
      "granite": 8626,
      "700": 8627,
      "Crete": 8628,
      "##oub": 8629,
      "inject": 8630,
      "dock": 8631,
      "##acious": 8632,
      "peas": 8633,
      "##agh": 8634,
      "timely": 8635,
      "surre": 8636,
      "steady": 8637,
      "##iverse": 8638,
      "Minister": 8639,
      "universal": 8640,
      "unexpected": 8641,
      "##mandu": 8642,
      "Rate": 8643,
      "fer": 8644,
      "tied": 8645,
      "tables": 8646,
      "##bra": 8647,
      "##ker": 8648,
      "##urious": 8649,
      "heaven": 8650,
      "grin": 8651,
      "score": 8652,
      "preced": 8653,
      "##efully": 8654,
      "certification": 8655,
      "identifying": 8656,
      "Commer": 8657,
      "constitutional": 8658,
      "Holocaust": 8659,
      "Amb": 8660,
      "OK": 8661,
      "Pract": 8662,
      "Range": 8663,
      "cust": 8664,
      "dirt": 8665,
      "lod": 8666,
      "##oll": 8667,
      "##vas": 8668,
      "##erable": 8669,
      "##itche": 8670,
      "armed": 8671,
      "Chapel": 8672,
      "colony": 8673,
      "boost": 8674,
      "distract": 8675,
      "marketing": 8676,
      "utter": 8677,
      "supervis": 8678,
      "Joseph": 8679,
      "##itchell": 8680,
      "Cre": 8681,
      "Dri": 8682,
      "Fed": 8683,
      "Pitt": 8684,
      "bic": 8685,
      "bike": 8686,
      "mood": 8687,
      "##lvan": 8688,
      "##his": 8689,
      "##isan": 8690,
      "##anted": 8691,
      "##ieur": 8692,
      "trash": 8693,
      "caps": 8694,
      "sixth": 8695,
      "agenda": 8696,
      "1980": 8697,
      "quarters": 8698,
      "##sylvan": 8699,
      "racial": 8700,
      "Jean": 8701,
      "scheduled": 8702,
      "volcanic": 8703,
      "Kathmandu": 8704,
      "Evaluation": 8705,
      "99": 8706,
      "NIPA": 8707,
      "Riv": 8708,
      "greet": 8709,
      "tort": 8710,
      "##char": 8711,
      "dozens": 8712,
      "pretend": 8713,
      "panor": 8714,
      "fashionable": 8715,
      "Similar": 8716,
      "mobile": 8717,
      "unnecess": 8718,
      "nonprofit": 8719,
      "dim": 8720,
      "mines": 8721,
      "##vre": 8722,
      "##istan": 8723,
      "##umm": 8724,
      "Chair": 8725,
      "assurance": 8726,
      "campus": 8727,
      "##ycl": 8728,
      "drinks": 8729,
      "Canal": 8730,
      "celebrate": 8731,
      "Appendix": 8732,
      "Islam": 8733,
      "accompan": 8734,
      "Initi": 8735,
      "sophisticated": 8736,
      "HCFA": 8737,
      "Best": 8738,
      "Low": 8739,
      "Vill": 8740,
      "harsh": 8741,
      "thir": 8742,
      "##idable": 8743,
      "dece": 8744,
      "##umin": 8745,
      "##obile": 8746,
      "hardware": 8747,
      "2005": 8748,
      "Argent": 8749,
      "generate": 8750,
      "kingdom": 8751,
      "bottle": 8752,
      "Prior": 8753,
      "succeeded": 8754,
      "subsidy": 8755,
      "Hawaii": 8756,
      "Pennsylvan": 8757,
      "strengthen": 8758,
      "philosophy": 8759,
      "nuclear": 8760,
      "CD": 8761,
      "Cale": 8762,
      "naked": 8763,
      "tack": 8764,
      "comedy": 8765,
      "wanting": 8766,
      "centre": 8767,
      "##lands": 8768,
      "Texan": 8769,
      "enterpr": 8770,
      "northwest": 8771,
      "Turks": 8772,
      "threatened": 8773,
      "revealed": 8774,
      "eliminate": 8775,
      "produces": 8776,
      "Francisco": 8777,
      "Meanwhile": 8778,
      "Night": 8779,
      "Turn": 8780,
      "Unt": 8781,
      "##yles": 8782,
      "##hand": 8783,
      "##inction": 8784,
      "##usc": 8785,
      "comply": 8786,
      "scream": 8787,
      "beneficial": 8788,
      "marry": 8789,
      "trem": 8790,
      "prominent": 8791,
      "Company": 8792,
      "districts": 8793,
      "bombing": 8794,
      "withdraw": 8795,
      "battles": 8796,
      "Sa": 8797,
      "Try": 8798,
      "Wars": 8799,
      "eager": 8800,
      "gig": 8801,
      "tact": 8802,
      "##anas": 8803,
      "rever": 8804,
      "procl": 8805,
      "##thur": 8806,
      "##iful": 8807,
      "lands": 8808,
      "protocols": 8809,
      "120": 8810,
      "devast": 8811,
      "reflects": 8812,
      "exhibit": 8813,
      "adjusted": 8814,
      "opposition": 8815,
      "occupied": 8816,
      "graduate": 8817,
      "Nearby": 8818,
      "overseas": 8819,
      "##quarters": 8820,
      "59": 8821,
      "ABC": 8822,
      "Joe": 8823,
      "Rest": 8824,
      "wake": 8825,
      "##rome": 8826,
      "##mers": 8827,
      "stones": 8828,
      "invaded": 8829,
      "persu": 8830,
      "valuation": 8831,
      "Shiva": 8832,
      "winner": 8833,
      "breaks": 8834,
      "supposedly": 8835,
      "integration": 8836,
      "Academ": 8837,
      "automated": 8838,
      "tribes": 8839,
      "updated": 8840,
      "suicide": 8841,
      "Hast": 8842,
      "Mother": 8843,
      "knife": 8844,
      "soil": 8845,
      "worn": 8846,
      "outra": 8847,
      "arches": 8848,
      "interrupted": 8849,
      "Chapter": 8850,
      "publicly": 8851,
      "factory": 8852,
      "milk": 8853,
      "188": 8854,
      "varied": 8855,
      "colleagues": 8856,
      "hearings": 8857,
      "rocky": 8858,
      "demonstrated": 8859,
      "Havana": 8860,
      "Pennsylvania": 8861,
      "48": 8862,
      "Him": 8863,
      "ol": 8864,
      "##fish": 8865,
      "stamp": 8866,
      "##struction": 8867,
      "discussions": 8868,
      "solutions": 8869,
      "networks": 8870,
      "Germans": 8871,
      "arranged": 8872,
      "attempted": 8873,
      "prospect": 8874,
      "scrut": 8875,
      "alleged": 8876,
      "bargain": 8877,
      "2020": 8878,
      "97": 8879,
      "DC": 8880,
      "Due": 8881,
      "Ol": 8882,
      "cited": 8883,
      "##alo": 8884,
      "##resses": 8885,
      "thrown": 8886,
      "securities": 8887,
      "retrofits": 8888,
      "exploring": 8889,
      "Dead": 8890,
      "civilization": 8891,
      "##roller": 8892,
      "superior": 8893,
      "Naples": 8894,
      "journalists": 8895,
      "shelter": 8896,
      "Saddam": 8897,
      "CFO": 8898,
      "Sina": 8899,
      "dup": 8900,
      "fed": 8901,
      "ties": 8902,
      "##mar": 8903,
      "##ati": 8904,
      "##rets": 8905,
      "unified": 8906,
      "appendix": 8907,
      "shoulders": 8908,
      "owns": 8909,
      "loose": 8910,
      "profitable": 8911,
      "admission": 8912,
      "generated": 8913,
      "##engers": 8914,
      "Prime": 8915,
      "promul": 8916,
      "southwest": 8917,
      "industries": 8918,
      "council": 8919,
      "planted": 8920,
      "seaf": 8921,
      "strictly": 8922,
      "instruments": 8923,
      "Sinai": 8924,
      "Ceter": 8925,
      "Lim": 8926,
      "Rico": 8927,
      "##otal": 8928,
      "##lymp": 8929,
      "##oped": 8930,
      "yep": 8931,
      "impose": 8932,
      "colored": 8933,
      "balanced": 8934,
      "photograp": 8935,
      "renowned": 8936,
      "Compt": 8937,
      "demonstrate": 8938,
      "contrary": 8939,
      "neighborhoods": 8940,
      "treasure": 8941,
      "nitrogen": 8942,
      "Istanbul": 8943,
      "AP": 8944,
      "bree": 8945,
      "lists": 8946,
      "##vic": 8947,
      "theaters": 8948,
      "##olo": 8949,
      "resident": 8950,
      "cloth": 8951,
      "intake": 8952,
      "Chatter": 8953,
      "brut": 8954,
      "costly": 8955,
      "producing": 8956,
      "currency": 8957,
      "Congressional": 8958,
      "affects": 8959,
      "Benef": 8960,
      "sending": 8961,
      "losses": 8962,
      "challenging": 8963,
      "beliefs": 8964,
      "institutional": 8965,
      "sacrifice": 8966,
      "lifestyle": 8967,
      "Et": 8968,
      "Harr": 8969,
      "Moor": 8970,
      "mal": 8971,
      "##hs": 8972,
      "##stal": 8973,
      "forests": 8974,
      "##igan": 8975,
      "asks": 8976,
      "notion": 8977,
      "##atell": 8978,
      "compe": 8979,
      "leaf": 8980,
      "capita": 8981,
      "passes": 8982,
      "Conc": 8983,
      "presentation": 8984,
      "membership": 8985,
      "arrest": 8986,
      "convince": 8987,
      "Balear": 8988,
      "crops": 8989,
      "diplom": 8990,
      "SA": 8991,
      "Var": 8992,
      "VBA": 8993,
      "pic": 8994,
      "wave": 8995,
      "##bec": 8996,
      "##AA": 8997,
      "##erk": 8998,
      "##ouch": 8999,
      "##itants": 9000,
      "##itarian": 9001,
      "##osis": 9002,
      "##eled": 9003,
      "aged": 9004,
      "Income": 9005,
      "intention": 9006,
      "##osex": 9007,
      "spots": 9008,
      "bench": 9009,
      "tries": 9010,
      "ruling": 9011,
      "lowest": 9012,
      "launch": 9013,
      "Barnes": 9014,
      "assessing": 9015,
      "meaningful": 9016,
      "Judge": 9017,
      "Norman": 9018,
      "Helms": 9019,
      "Stephen": 9020,
      "satisfied": 9021,
      "monopoly": 9022,
      "49": 9023,
      "47": 9024,
      "Based": 9025,
      "Cross": 9026,
      "Kle": 9027,
      "RE": 9028,
      "bonds": 9029,
      "dense": 9030,
      "##bl": 9031,
      "##vard": 9032,
      "##MO": 9033,
      "Tell": 9034,
      "transpar": 9035,
      "180": 9036,
      "Represent": 9037,
      "couples": 9038,
      "suggestions": 9039,
      "credibility": 9040,
      "silk": 9041,
      "11th": 9042,
      "rider": 9043,
      "Harvard": 9044,
      "prisoner": 9045,
      "fleet": 9046,
      "Islands": 9047,
      "Cowboys": 9048,
      "mystery": 9049,
      "disappointed": 9050,
      "democratic": 9051,
      "overwhelming": 9052,
      "Chatterbox": 9053,
      "43": 9054,
      "exit": 9055,
      "whereas": 9056,
      "traged": 9057,
      "warned": 9058,
      "Show": 9059,
      "##enny": 9060,
      "causing": 9061,
      "contractor": 9062,
      "straw": 9063,
      "tapes": 9064,
      "floors": 9065,
      "holidays": 9066,
      "warriors": 9067,
      "Given": 9068,
      "XIV": 9069,
      "gh": 9070,
      "lag": 9071,
      "vig": 9072,
      "##pit": 9073,
      "tracks": 9074,
      "rulers": 9075,
      "sounded": 9076,
      "beds": 9077,
      "uncle": 9078,
      "arrival": 9079,
      "tends": 9080,
      "essentially": 9081,
      "Method": 9082,
      "appointed": 9083,
      "impeachment": 9084,
      "Behind": 9085,
      "GSA": 9086,
      "Liber": 9087,
      "Rod": 9088,
      "Tomb": 9089,
      "honey": 9090,
      "hiding": 9091,
      "relic": 9092,
      "##uty": 9093,
      "confer": 9094,
      "exquis": 9095,
      "meals": 9096,
      "receives": 9097,
      "##otto": 9098,
      "divide": 9099,
      "balcon": 9100,
      "Quiz": 9101,
      "Moreover": 9102,
      "repeat": 9103,
      "pilot": 9104,
      "conquered": 9105,
      "mosaics": 9106,
      "moderate": 9107,
      "album": 9108,
      "Boy": 9109,
      "Fal": 9110,
      "Lower": 9111,
      "fond": 9112,
      "##down": 9113,
      "##uster": 9114,
      "##abeth": 9115,
      "##izabeth": 9116,
      "Stark": 9117,
      "span": 9118,
      "##ribly": 9119,
      "##ounced": 9120,
      "competitors": 9121,
      "stronger": 9122,
      "decreased": 9123,
      "targets": 9124,
      "flee": 9125,
      "Protection": 9126,
      "Express": 9127,
      "intelligence": 9128,
      "Comptroller": 9129,
      "Bart": 9130,
      "Mult": 9131,
      "cant": 9132,
      "cotton": 9133,
      "fake": 9134,
      "pension": 9135,
      "sons": 9136,
      "wished": 9137,
      "neut": 9138,
      "teeth": 9139,
      "universe": 9140,
      "explicit": 9141,
      "partly": 9142,
      "guest": 9143,
      "##hesis": 9144,
      "slave": 9145,
      "checks": 9146,
      "medium": 9147,
      "antiques": 9148,
      "campaigns": 9149,
      "commonly": 9150,
      "fortune": 9151,
      "naturally": 9152,
      "Elizabeth": 9153,
      "Davis": 9154,
      "engineer": 9155,
      "1970s": 9156,
      "garb": 9157,
      "jungle": 9158,
      "Family": 9159,
      "Hastings": 9160,
      "44": 9161,
      "Okl": 9162,
      "Olymp": 9163,
      "vic": 9164,
[...]
